{
  "version": "1.0",
  "truncation": null,
  "padding": null,
  "added_tokens": [
    {
      "id": 0,
      "content": "<|unk|>",
      "single_word": false,
      "lstrip": false,
      "rstrip": false,
      "normalized": false,
      "special": true
    },
    {
      "id": 1,
      "content": "<|bos|>",
      "single_word": false,
      "lstrip": false,
      "rstrip": false,
      "normalized": false,
      "special": true
    },
    {
      "id": 2,
      "content": "<|eos|>",
      "single_word": false,
      "lstrip": false,
      "rstrip": false,
      "normalized": false,
      "special": true
    }
  ],
  "normalizer": null,
  "pre_tokenizer": {
    "type": "ByteLevel",
    "add_prefix_space": true,
    "trim_offsets": true,
    "use_regex": true
  },
  "post_processor": null,
  "decoder": {
    "type": "ByteLevel",
    "add_prefix_space": true,
    "trim_offsets": true,
    "use_regex": true
  },
  "model": {
    "type": "BPE",
    "dropout": null,
    "unk_token": "<|unk|>",
    "continuing_subword_prefix": null,
    "end_of_word_suffix": null,
    "fuse_unk": false,
    "byte_fallback": false,
    "ignore_merges": false,
    "vocab": {
      "<|unk|>": 0,
      "<|bos|>": 1,
      "<|eos|>": 2,
      "!": 3,
      "\"": 4,
      "&": 5,
      "'": 6,
      "(": 7,
      ")": 8,
      ",": 9,
      "-": 10,
      ".": 11,
      "/": 12,
      "0": 13,
      "1": 14,
      "2": 15,
      "3": 16,
      "4": 17,
      "5": 18,
      "6": 19,
      "7": 20,
      "8": 21,
      "9": 22,
      ":": 23,
      ";": 24,
      "<": 25,
      "=": 26,
      ">": 27,
      "?": 28,
      "A": 29,
      "B": 30,
      "C": 31,
      "D": 32,
      "E": 33,
      "F": 34,
      "G": 35,
      "H": 36,
      "I": 37,
      "J": 38,
      "K": 39,
      "L": 40,
      "M": 41,
      "N": 42,
      "O": 43,
      "P": 44,
      "Q": 45,
      "R": 46,
      "S": 47,
      "T": 48,
      "U": 49,
      "V": 50,
      "W": 51,
      "X": 52,
      "Y": 53,
      "Z": 54,
      "[": 55,
      "]": 56,
      "a": 57,
      "b": 58,
      "c": 59,
      "d": 60,
      "e": 61,
      "f": 62,
      "g": 63,
      "h": 64,
      "i": 65,
      "j": 66,
      "k": 67,
      "l": 68,
      "m": 69,
      "n": 70,
      "o": 71,
      "p": 72,
      "q": 73,
      "r": 74,
      "s": 75,
      "t": 76,
      "u": 77,
      "v": 78,
      "w": 79,
      "x": 80,
      "y": 81,
      "z": 82,
      "â": 83,
      "ĉ": 84,
      "Ċ": 85,
      "Ġ": 86,
      "Ģ": 87,
      "Ļ": 88,
      "Ġt": 89,
      "he": 90,
      "Ġa": 91,
      "Ġs": 92,
      "ou": 93,
      "in": 94,
      "Ġm": 95,
      "Ġw": 96,
      "re": 97,
      "ha": 98,
      "nd": 99,
      "Ġthe": 100,
      "is": 101,
      "Ġb": 102,
      "or": 103,
      "er": 104,
      "ll": 105,
      "it": 106,
      "Ġf": 107,
      "on": 108,
      "es": 109,
      "Ġd": 110,
      "Ġc": 111,
      "en": 112,
      "Ġl": 113,
      "Ġo": 114,
      "Ġn": 115,
      "ar": 116,
      "Ġth": 117,
      "Ġy": 118,
      "Ġh": 119,
      "ĠI": 120,
      "Ġp": 121,
      "Ġyou": 122,
      "Ġto": 123,
      "hat": 124,
      "ed": 125,
      "Ġand": 126,
      "an": 127,
      "Ġof": 128,
      "Ġhe": 129,
      "ot": 130,
      "ing": 131,
      "ve": 132,
      "ow": 133,
      "st": 134,
      "om": 135,
      "Ġg": 136,
      "at": 137,
      "Ġin": 138,
      "Ġbe": 139,
      "se": 140,
      "ce": 141,
      "et": 142,
      "Ġha": 143,
      "Ġmy": 144,
      "ld": 145,
      "ay": 146,
      "le": 147,
      "Ġe": 148,
      "ut": 149,
      "ir": 150,
      "ith": 151,
      "im": 152,
      "Ġme": 153,
      "ch": 154,
      "gh": 155,
      "'s": 156,
      "Ġnot": 157,
      "ill": 158,
      "Ġis": 159,
      "as": 160,
      "Ġthat": 161,
      "And": 162,
      "oo": 163,
      "The": 164,
      "ke": 165,
      "Ġfor": 166,
      "Ġu": 167,
      "Ġwith": 168,
      "ad": 169,
      "Ġwe": 170,
      "id": 171,
      "ter": 172,
      "Ġit": 173,
      "al": 174,
      "ent": 175,
      "Ġhis": 176,
      "her": 177,
      ".]": 178,
      "Ġyour": 179,
      "ri": 180,
      "ra": 181,
      "Ġst": 182,
      "==": 183,
      "ght": 184,
      "our": 185,
      "Ġthou": 186,
      "ly": 187,
      "us": 188,
      "Ġhim": 189,
      "Ġre": 190,
      "ord": 191,
      "ĠW": 192,
      "Ġthis": 193,
      "ome": 194,
      "Ġli": 195,
      "ur": 196,
      "Ġk": 197,
      "Ġhave": 198,
      "ĠH": 199,
      "ĠS": 200,
      "Ġas": 201,
      "ore": 202,
      "Ġon": 203,
      "Ġso": 204,
      "ver": 205,
      "ould": 206,
      "ain": 207,
      "ro": 208,
      "--": 209,
      "Ġde": 210,
      "hi": 211,
      "ck": 212,
      "Ġdo": 213,
      "ood": 214,
      "Ġwill": 215,
      "am": 216,
      "ĠA": 217,
      "and": 218,
      "Ġsha": 219,
      "ess": 220,
      "AN": 221,
      "ĠC": 222,
      "ea": 223,
      "ion": 224,
      "Ġher": 225,
      "ĠM": 226,
      "ĠT": 227,
      "ER": 228,
      "est": 229,
      "th": 230,
      "US": 231,
      "Ġse": 232,
      "ge": 233,
      "IN": 234,
      "Ġlo": 235,
      "AR": 236,
      "Ġthy": 237,
      "EN": 238,
      "ĠB": 239,
      "Ġan": 240,
      "Ġno": 241,
      "Ġsu": 242,
      "ĠL": 243,
      "il": 244,
      "Ġall": 245,
      "ru": 246,
      "ĠP": 247,
      "ake": 248,
      "ell": 249,
      "ĠG": 250,
      "Ġbut": 251,
      "Ġ'": 252,
      "if": 253,
      "Ġfa": 254,
      "ho": 255,
      "ct": 256,
      "Ġex": 257,
      "Ġsp": 258,
      "ight": 259,
      "ear": 260,
      "To": 261,
      "han": 262,
      "Ġkn": 263,
      "ES": 264,
      "Ġshall": 265,
      "rom": 266,
      "Ġthee": 267,
      "Ġare": 268,
      "Ġv": 269,
      "Ġ[": 270,
      "ard": 271,
      "ĠF": 272,
      "ast": 273,
      "Ġby": 274,
      "art": 275,
      "Ġsh": 276,
      "ant": 277,
      "ON": 278,
      "Ġour": 279,
      "En": 280,
      "ine": 281,
      "end": 282,
      "Ġne": 283,
      "ĠO": 284,
      "nt": 285,
      "Ġman": 286,
      "ous": 287,
      "That": 288,
      "qu": 289,
      "Ġat": 290,
      "Ġup": 291,
      "one": 292,
      "sel": 293,
      "Ġam": 294,
      "OR": 295,
      "ST": 296,
      "res": 297,
      "out": 298,
      "Th": 299,
      "Ġmu": 300,
      "ind": 301,
      "em": 302,
      "ers": 303,
      "'ll": 304,
      "Ġcom": 305,
      "He": 306,
      "ie": 307,
      "hen": 308,
      "ĠD": 309,
      "hich": 310,
      "ry": 311,
      "ong": 312,
      "ic": 313,
      "Ġgood": 314,
      "Ġgo": 315,
      "Ġlord": 316,
      "OL": 317,
      "ĠThe": 318,
      "ul": 319,
      "ive": 320,
      "ĠN": 321,
      "Ġcon": 322,
      "Ġshe": 323,
      "Ġfrom": 324,
      "oth": 325,
      "ĊĊ": 326,
      "Enter": 327,
      "row": 328,
      "ven": 329,
      "ble": 330,
      "AL": 331,
      "Ġwhat": 332,
      "Ġbl": 333,
      "here": 334,
      "el": 335,
      "Ġpr": 336,
      "Ġsw": 337,
      "Ġlove": 338,
      "ep": 339,
      "Ġexit": 340,
      "Ġknow": 341,
      "Ġwas": 342,
      "Ġthem": 343,
      "ure": 344,
      "fe": 345,
      "pp": 346,
      "au": 347,
      "Ġmore": 348,
      "ol": 349,
      "all": 350,
      "Ġtheir": 351,
      "Ġwould": 352,
      "====": 353,
      "ost": 354,
      "reat": 355,
      "Ġcan": 356,
      "Ġnow": 357,
      "But": 358,
      "Ġhat": 359,
      "self": 360,
      "Ġthey": 361,
      "You": 362,
      "Ġar": 363,
      "ort": 364,
      "LE": 365,
      "Ġor": 366,
      "Ġthan": 367,
      "are": 368,
      "to": 369,
      "ink": 370,
      "Ġsir": 371,
      "Ġus": 372,
      "ate": 373,
      "ide": 374,
      "IO": 375,
      "ves": 376,
      "ĠE": 377,
      "hy": 378,
      "Ġthere": 379,
      "Ġwor": 380,
      "Ġsay": 381,
      "ĊĠ": 382,
      "um": 383,
      "ak": 384,
      "ue": 385,
      ".--": 386,
      "red": 387,
      "ath": 388,
      "Ġr": 389,
      "Ġif": 390,
      "ook": 391,
      "ĠR": 392,
      "od": 393,
      "Ġhere": 394,
      "ig": 395,
      "ather": 396,
      "Ġlet": 397,
      "ound": 398,
      "other": 399,
      "ame": 400,
      "TH": 401,
      "Ġlike": 402,
      "CH": 403,
      "un": 404,
      "Ġdis": 405,
      "Ġhath": 406,
      "For": 407,
      "Ġpl": 408,
      "Ġj": 409,
      "Ġwell": 410,
      "Ġone": 411,
      "Ġthen": 412,
      "Ġsee": 413,
      "Ġbr": 414,
      "Ġun": 415,
      "fore": 416,
      "EL": 417,
      "ĠK": 418,
      "ance": 419,
      "ING": 420,
      "Ġdid": 421,
      "Ġshould": 422,
      "Ġmay": 423,
      "Ġen": 424,
      "gain": 425,
      "IA": 426,
      "RO": 427,
      "ice": 428,
      "Ġmad": 429,
      "old": 430,
      "Ġmake": 431,
      "As": 432,
      "Ġcome": 433,
      "pe": 434,
      "ĠHe": 435,
      "eak": 436,
      "Ġqu": 437,
      "Ġout": 438,
      "Ġupon": 439,
      "ĠWhat": 440,
      "Ġmust": 441,
      "Ġsa": 442,
      "ity": 443,
      "very": 444,
      "ish": 445,
      "Ġwhich": 446,
      "Ġwere": 447,
      "ies": 448,
      "ime": 449,
      "IUS": 450,
      "Ġhad": 451,
      "Ġtoo": 452,
      "Ġhand": 453,
      "io": 454,
      "ap": 455,
      "Ġpro": 456,
      "Ġtru": 457,
      "ff": 458,
      "Ġ\"": 459,
      "KING": 460,
      "ĠTh": 461,
      "Ġey": 462,
      "Ġsuch": 463,
      "Ġpo": 464,
      "orn": 465,
      "ist": 466,
      "ĠJ": 467,
      "Ġheart": 468,
      "My": 469,
      "Ġwhen": 470,
      "ick": 471,
      "ass": 472,
      "What": 473,
      "ther": 474,
      "Ġal": 475,
      "Ġagain": 476,
      "ness": 477,
      "ved": 478,
      "IR": 479,
      "ise": 480,
      "ave": 481,
      "ough": 482,
      "ond": 483,
      "Ġhon": 484,
      "ings": 485,
      "Ġoff": 486,
      "ire": 487,
      "Ġwho": 488,
      "ence": 489,
      "wn": 490,
      "urn": 491,
      "Ġyet": 492,
      "Ġspeak": 493,
      "hed": 494,
      "eet": 495,
      "age": 496,
      "ĠAnd": 497,
      "oy": 498,
      "They": 499,
      "own": 500,
      "ack": 501,
      "ady": 502,
      "ĠKing": 503,
      "Ġsome": 504,
      "ARD": 505,
      "If": 506,
      "Ġthink": 507,
      "Ġthese": 508,
      "AM": 509,
      "Ġmine": 510,
      "ince": 511,
      "Ġexits": 512,
      "Ġfl": 513,
      "LO": 514,
      "ng": 515,
      "With": 516,
      "Ġfri": 517,
      "ESS": 518,
      "ose": 519,
      "Ġab": 520,
      "ress": 521,
      "Ġfather": 522,
      "In": 523,
      "ag": 524,
      "Ġgreat": 525,
      "CE": 526,
      "entle": 527,
      "ius": 528,
      "ef": 529,
      "ust": 530,
      "ors": 531,
      "Ġtime": 532,
      "way": 533,
      "Ġhea": 534,
      "Ġro": 535,
      "Ġfo": 536,
      "os": 537,
      "Ġtw": 538,
      "ANT": 539,
      "pt": 540,
      "Ġgive": 541,
      "Ġcha": 542,
      "Ġhow": 543,
      "ation": 544,
      "Ġday": 545,
      "aster": 546,
      "AT": 547,
      "Ġtake": 548,
      "ree": 549,
      "Ġmuch": 550,
      "not": 551,
      "Ġmost": 552,
      "Ġho": 553,
      "IL": 554,
      "ull": 555,
      "li": 556,
      "Ġfriend": 557,
      "ite": 558,
      "ĠBut": 559,
      "Ġnever": 560,
      "Ġtell": 561,
      "Ġwhere": 562,
      "Of": 563,
      "Ġmar": 564,
      "Ġdes": 565,
      "the": 566,
      "ign": 567,
      "ĠY": 568,
      "ber": 569,
      "Ġlea": 570,
      "Ġgra": 571,
      "Ġmen": 572,
      "RI": 573,
      "ĠYou": 574,
      "Ġhear": 575,
      "Ġbet": 576,
      "Ġlook": 577,
      "Ġart": 578,
      "ful": 579,
      "Ġblood": 580,
      "ither": 581,
      "Ġdoth": 582,
      "Ġlife": 583,
      "man": 584,
      "ian": 585,
      "SE": 586,
      "Ġother": 587,
      "Be": 588,
      "ward": 589,
      "Ġword": 590,
      "Which": 591,
      "ment": 592,
      "ious": 593,
      "ene": 594,
      "ount": 595,
      "Ġfair": 596,
      "oul": 597,
      "Ġdeath": 598,
      "LA": 599,
      "Ġwr": 600,
      "de": 601,
      "ool": 602,
      "ase": 603,
      "ces": 604,
      "Ġgentle": 605,
      "erv": 606,
      "igh": 607,
      "Ġri": 608,
      "Ġson": 609,
      "IC": 610,
      "Ġpart": 611,
      "PH": 612,
      "UC": 613,
      "Ġtr": 614,
      "This": 615,
      "ET": 616,
      "Ġfear": 617,
      "FF": 618,
      "So": 619,
      "ars": 620,
      "les": 621,
      "We": 622,
      "Ġsc": 623,
      "nder": 624,
      "Ġown": 625,
      "itt": 626,
      "Ġper": 627,
      "land": 628,
      "Ġwh": 629,
      "Ġany": 630,
      "Ġcl": 631,
      "Ġple": 632,
      "Ġra": 633,
      "ĠLord": 634,
      "ee": 635,
      "eth": 636,
      "Ġsweet": 637,
      "Sc": 638,
      "Who": 639,
      "ove": 640,
      "Ġheaven": 641,
      "Ġcall": 642,
      "Ġad": 643,
      "Tis": 644,
      "Ġmade": 645,
      "======": 646,
      "rown": 647,
      "Ġeyes": 648,
      "ĠIf": 649,
      "Ġtrue": 650,
      "ia": 651,
      "llow": 652,
      "Ġcomm": 653,
      "Ġnight": 654,
      "per": 655,
      "Scene": 656,
      "tain": 657,
      "AND": 658,
      "we": 659,
      "Ġvery": 660,
      "When": 661,
      "ction": 662,
      "augh": 663,
      "ss": 664,
      "uke": 665,
      "=======": 666,
      "ab": 667,
      "ac": 668,
      "Ġke": 669,
      "Ġhast": 670,
      "nce": 671,
      "CA": 672,
      "How": 673,
      "Ġcannot": 674,
      "ving": 675,
      "orrow": 676,
      "Ġking": 677,
      "Ġapp": 678,
      "oman": 679,
      "tis": 680,
      "UR": 681,
      "ty": 682,
      "Ġworld": 683,
      "Ġstr": 684,
      "ock": 685,
      "Ġhonor": 686,
      "me": 687,
      "Ġpre": 688,
      "able": 689,
      "iss": 690,
      "ĠPr": 691,
      "ĠGod": 692,
      "ud": 693,
      "Ġbeen": 694,
      "Ġbeg": 695,
      "Thou": 696,
      "Ġpray": 697,
      "Ġaf": 698,
      "TI": 699,
      "QU": 700,
      "ĠSir": 701,
      "Ġwit": 702,
      "Ġdone": 703,
      "be": 704,
      "Ġaway": 705,
      "Ġarm": 706,
      "AC": 707,
      "Ġdown": 708,
      "ace": 709,
      "ger": 710,
      "Ġim": 711,
      "Ġru": 712,
      "Or": 713,
      "Ġcomp": 714,
      "Ġway": 715,
      "IRST": 716,
      "ne": 717,
      "ife": 718,
      "EM": 719,
      "Ġstand": 720,
      "for": 721,
      "ps": 722,
      "Ġbrother": 723,
      "Ġtwo": 724,
      "Ġbre": 725,
      "cc": 726,
      "FIRST": 727,
      "Ġwar": 728,
      "Ġle": 729,
      "Ġname": 730,
      "ENT": 731,
      "less": 732,
      "Is": 733,
      "sw": 734,
      "hes": 735,
      "Ġnor": 736,
      "Ġhead": 737,
      "ĠWhy": 738,
      "ower": 739,
      "ons": 740,
      "CON": 741,
      "She": 742,
      "Ġpres": 743,
      "ks": 744,
      "aw": 745,
      "Ġmean": 746,
      "ĠNo": 747,
      "ears": 748,
      "Ġrem": 749,
      "ORD": 750,
      "Ġmight": 751,
      "Ġold": 752,
      "Ġnoble": 753,
      "irst": 754,
      "DU": 755,
      "There": 756,
      "aughter": 757,
      "Ġsl": 758,
      "Ġthought": 759,
      "Ġleave": 760,
      "Ġbefore": 761,
      "aside": 762,
      "Where": 763,
      "It": 764,
      "ED": 765,
      "ach": 766,
      "tend": 767,
      "ĠV": 768,
      "come": 769,
      "bl": 770,
      "ĠĠ": 771,
      "Ġcour": 772,
      "akes": 773,
      "Why": 774,
      "Ġlong": 775,
      "Ġhar": 776,
      "ĠMy": 777,
      "ause": 778,
      "Ġshow": 779,
      "Ġpur": 780,
      "ts": 781,
      "Ġear": 782,
      "ple": 783,
      "aid": 784,
      "Ġdead": 785,
      "Ġnew": 786,
      "By": 787,
      "hing": 788,
      "Ġthus": 789,
      "uc": 790,
      "Ġcould": 791,
      "Ġpoor": 792,
      "ds": 793,
      "Ġcont": 794,
      "IAN": 795,
      "cl": 796,
      "Ġbeing": 797,
      "Ġcomes": 798,
      "Ġgl": 799,
      "Ġsoul": 800,
      "ark": 801,
      "ĠLet": 802,
      "No": 803,
      "har": 804,
      "ouse": 805,
      "hall": 806,
      "Ġever": 807,
      "Ġend": 808,
      "STA": 809,
      "IS": 810,
      "Ġbear": 811,
      "INE": 812,
      "Ġbetter": 813,
      "Ġfind": 814,
      "ĠIt": 815,
      "Ġstill": 816,
      "Ġlady": 817,
      "eace": 818,
      "nto": 819,
      "ought": 820,
      "uck": 821,
      "Ġbest": 822,
      "RIN": 823,
      "ins": 824,
      "ĠDuke": 825,
      "men": 826,
      "atter": 827,
      "Ġrep": 828,
      "ier": 829,
      "arry": 830,
      "Ġboth": 831,
      "ĠHow": 832,
      "Ġinto": 833,
      "well": 834,
      "Ġkeep": 835,
      "BER": 836,
      "Ġmer": 837,
      "ied": 838,
      "Let": 839,
      "ew": 840,
      "BE": 841,
      "ĠThere": 842,
      ".\"": 843,
      "Ġsm": 844,
      "mp": 845,
      "Ġmyself": 846,
      "ens": 847,
      "race": 848,
      "COND": 849,
      "Ġlive": 850,
      "Ġevery": 851,
      "ĠCome": 852,
      "une": 853,
      "hip": 854,
      "Ġmany": 855,
      "MAN": 856,
      "Ġput": 857,
      "ittle": 858,
      "ĠEn": 859,
      "KE": 860,
      "SECOND": 861,
      "PRIN": 862,
      "RU": 863,
      "of": 864,
      "Ġnothing": 865,
      "Ġgi": 866,
      "aint": 867,
      "ged": 868,
      "Now": 869,
      "Ġfool": 870,
      "ason": 871,
      "ĠOF": 872,
      "ren": 873,
      "ĠThis": 874,
      "Come": 875,
      "ail": 876,
      "Ġset": 877,
      "Ġwife": 878,
      "Ġmaster": 879,
      "CHARD": 880,
      "Ġfriends": 881,
      "Ġfell": 882,
      "HAM": 883,
      "Your": 884,
      "alk": 885,
      "cy": 886,
      "med": 887,
      "rant": 888,
      "Ġthose": 889,
      "istress": 890,
      "Ġbra": 891,
      "Ġeye": 892,
      "Ġtong": 893,
      "its": 894,
      "ĠWe": 895,
      "LET": 896,
      "RY": 897,
      "Ġdaughter": 898,
      "SS": 899,
      "Ġlittle": 900,
      "rance": 901,
      "Ġhour": 902,
      "Ġhold": 903,
      "ĠCa": 904,
      "Ġlie": 905,
      "ile": 906,
      "led": 907,
      "vil": 908,
      "Ġfirst": 909,
      "Ġserv": 910,
      "Ġyoung": 911,
      "Ġdie": 912,
      "Ġchi": 913,
      "atch": 914,
      "EEN": 915,
      "ience": 916,
      "Ġdear": 917,
      "Ġsle": 918,
      "esar": 919,
      "eds": 920,
      "Ġco": 921,
      "Ġfall": 922,
      "STAFF": 923,
      "His": 924,
      "Ġgu": 925,
      "uty": 926,
      "uth": 927,
      "ĠAnt": 928,
      "Than": 929,
      "Ġconf": 930,
      "Ġel": 931,
      "Ġsword": 932,
      "QUEEN": 933,
      "ĠEng": 934,
      "ret": 935,
      "Ġnat": 936,
      "Ġunder": 937,
      "Ġface": 938,
      "ALSTAFF": 939,
      "Ġrest": 940,
      "FALSTAFF": 941,
      "oud": 942,
      "ĠTo": 943,
      "Ġfollow": 944,
      "lt": 945,
      "any": 946,
      "Ġfe": 947,
      "TER": 948,
      "iness": 949,
      "Ġgri": 950,
      "Then": 951,
      "lf": 952,
      "Ġtri": 953,
      "get": 954,
      "Ġtra": 955,
      "Ġmind": 956,
      "ilt": 957,
      "ctor": 958,
      "Ġthine": 959,
      "ows": 960,
      "ield": 961,
      "ants": 962,
      "Ġcons": 963,
      "Ġhimself": 964,
      "int": 965,
      "Ġworth": 966,
      "Ġagainst": 967,
      "TUS": 968,
      "ring": 969,
      "ison": 970,
      "ICK": 971,
      "St": 972,
      "Ġplay": 973,
      "UL": 974,
      "Ġkind": 975,
      "Ġfull": 976,
      "ched": 977,
      "Ġhouse": 978,
      "BA": 979,
      "Ġpass": 980,
      "with": 981,
      "oun": 982,
      "Ġstay": 983,
      "Ġmother": 984,
      "Ġplace": 985,
      "Ġpresent": 986,
      "ĠThat": 987,
      "ale": 988,
      "esty": 989,
      "ROS": 990,
      "Ġtill": 991,
      "Ġboy": 992,
      "Ġche": 993,
      "Here": 994,
      "ĠFor": 995,
      "ĠRome": 996,
      "Ġres": 997,
      "Ġnone": 998,
      "irt": 999,
      "Ġtre": 1000,
      "Ġgone": 1001,
      "ID": 1002,
      "ĠThou": 1003,
      "Ġfort": 1004,
      "raw": 1005,
      "Ġseem": 1006,
      "Ġturn": 1007,
      "PRINCE": 1008,
      "OST": 1009,
      "Ġtongue": 1010,
      "AG": 1011,
      "ft": 1012,
      "Ġbring": 1013,
      "Ġwhose": 1014,
      "asure": 1015,
      "ĠDo": 1016,
      ",\"": 1017,
      "sand": 1018,
      "BO": 1019,
      "Ġelse": 1020,
      "RESS": 1021,
      "Ġch": 1022,
      "Ġforth": 1023,
      "GO": 1024,
      "Ġwoman": 1025,
      "ition": 1026,
      "Ġcur": 1027,
      "Ġwords": 1028,
      "RICHARD": 1029,
      "pon": 1030,
      "ĠAn": 1031,
      "ĠAy": 1032,
      "ĠCaesar": 1033,
      "ered": 1034,
      "Ġanother": 1035,
      "ished": 1036,
      "Ġpeace": 1037,
      "Ġright": 1038,
      "ĠIs": 1039,
      "Ġchar": 1040,
      "air": 1041,
      "you": 1042,
      "Ġhands": 1043,
      "Ġpe": 1044,
      "band": 1045,
      "Ġhus": 1046,
      "swer": 1047,
      "Ġmo": 1048,
      "Ġbod": 1049,
      "ANTON": 1050,
      "Ġcourt": 1051,
      "ĠCl": 1052,
      "Ġchild": 1053,
      "com": 1054,
      "ĉĠĠ": 1055,
      "ĠWell": 1056,
      "hile": 1057,
      "Ġsaid": 1058,
      "Ġafter": 1059,
      "ix": 1060,
      "Ġbel": 1061,
      "ense": 1062,
      "ets": 1063,
      "illain": 1064,
      "MAR": 1065,
      "Ġlight": 1066,
      "Ġback": 1067,
      "Ġthr": 1068,
      "Ġthough": 1069,
      "Ġchan": 1070,
      "orse": 1071,
      "ont": 1072,
      "Ġcount": 1073,
      "Ġkill": 1074,
      "ĊĉĠĠ": 1075,
      "Ġpri": 1076,
      "Ġspir": 1077,
      "ĠQ": 1078,
      "ĠAt": 1079,
      "Ġwrong": 1080,
      "een": 1081,
      "IST": 1082,
      "LES": 1083,
      "Ġacc": 1084,
      "ĠSo": 1085,
      "ĠHere": 1086,
      "Ġimp": 1087,
      "oh": 1088,
      "ary": 1089,
      "Ġunto": 1090,
      "Ġonce": 1091,
      "Ġcrown": 1092,
      "ned": 1093,
      "Ġfal": 1094,
      "ised": 1095,
      "Ġhope": 1096,
      "eech": 1097,
      "ph": 1098,
      "UN": 1099,
      "mb": 1100,
      "ans": 1101,
      "Shall": 1102,
      "Ġpower": 1103,
      "ried": 1104,
      "Ġdre": 1105,
      "Ġsub": 1106,
      "Ġfaith": 1107,
      "Ġbreat": 1108,
      "ony": 1109,
      "Ġletter": 1110,
      "LUC": 1111,
      "ohn": 1112,
      "ĠNow": 1113,
      "Ġstran": 1114,
      "Ġbid": 1115,
      "DUKE": 1116,
      "SH": 1117,
      "ect": 1118,
      "ĠFrance": 1119,
      "ister": 1120,
      "selves": 1121,
      "All": 1122,
      "RA": 1123,
      "vy": 1124,
      "Ġmatter": 1125,
      "ENRY": 1126,
      "ĠLuc": 1127,
      "Ġhusband": 1128,
      "Ġpra": 1129,
      "ury": 1130,
      "ĠHENRY": 1131,
      "imes": 1132,
      "Ġret": 1133,
      "Have": 1134,
      "Ġover": 1135,
      "DO": 1136,
      "Ġhum": 1137,
      "Ġhas": 1138,
      "MON": 1139,
      "Ġass": 1140,
      "Ġanswer": 1141,
      "Ġmeet": 1142,
      "Ġdou": 1143,
      "Ġinde": 1144,
      "HAMLET": 1145,
      "Will": 1146,
      "ork": 1147,
      "THER": 1148,
      "ROM": 1149,
      "Ġthousand": 1150,
      "Ġbed": 1151,
      "Ġabout": 1152,
      "Ġwhom": 1153,
      "Ġhel": 1154,
      "Ġsleep": 1155,
      "Ġfalse": 1156,
      "ĠBr": 1157,
      "Ġdisc": 1158,
      "ning": 1159,
      "Ġheard": 1160,
      "ute": 1161,
      "Ġkiss": 1162,
      "pect": 1163,
      "Ġser": 1164,
      "Ġgods": 1165,
      "fect": 1166,
      "Ġi": 1167,
      "ory": 1168,
      "Ġcause": 1169,
      "Ġeven": 1170,
      "ade": 1171,
      "Ġdost": 1172,
      "Ġindeed": 1173,
      "Upon": 1174,
      "ms": 1175,
      "Ġbea": 1176,
      "ĠGo": 1177,
      "Thy": 1178,
      "ĠJohn": 1179,
      "Ġgr": 1180,
      "Ġbes": 1181,
      "Ġhome": 1182,
      "ĠMar": 1183,
      "Ġthing": 1184,
      "Ġplease": 1185,
      "Ġjust": 1186,
      "Do": 1187,
      "Nor": 1188,
      "Ġmakes": 1189,
      "Ġlords": 1190,
      "Ġmaid": 1191,
      "Ġwind": 1192,
      "Ġvirt": 1193,
      "Ġtruth": 1194,
      "gu": 1195,
      "Ġvillain": 1196,
      "Ġgold": 1197,
      "OM": 1198,
      "IT": 1199,
      "ient": 1200,
      "ardon": 1201,
      "From": 1202,
      "iers": 1203,
      "Ġmis": 1204,
      "Ġpat": 1205,
      "Ġmon": 1206,
      "Ġob": 1207,
      "ĠShe": 1208,
      "Ġthree": 1209,
      "Ġhence": 1210,
      "Ġthank": 1211,
      "bt": 1212,
      "Ġlaw": 1213,
      "ĠBe": 1214,
      "hard": 1215,
      "Our": 1216,
      "Ġshame": 1217,
      "Yet": 1218,
      "fort": 1219,
      "Ġsold": 1220,
      "eal": 1221,
      "Ġuse": 1222,
      "Ġstate": 1223,
      "ĠThen": 1224,
      "ousin": 1225,
      "ĠNay": 1226,
      "ELLO": 1227,
      "Not": 1228,
      "by": 1229,
      "ĠBy": 1230,
      "Ġsure": 1231,
      "Ġmadam": 1232,
      "Ġfar": 1233,
      "Ġnature": 1234,
      "ild": 1235,
      "uff": 1236,
      "ESTER": 1237,
      "els": 1238,
      "Ġbody": 1239,
      "ĠWhere": 1240,
      "Ġdi": 1241,
      "ueen": 1242,
      "Ġill": 1243,
      "vere": 1244,
      "Ġbreak": 1245,
      "let": 1246,
      "RE": 1247,
      "Ġcame": 1248,
      "AU": 1249,
      "Ġfight": 1250,
      "Al": 1251,
      "Ġthings": 1252,
      "Ġhapp": 1253,
      "!--": 1254,
      "Ġere": 1255,
      "Ġwithin": 1256,
      "ĠGood": 1257,
      "Ġval": 1258,
      "Ġsent": 1259,
      "oney": 1260,
      "OTH": 1261,
      "ran": 1262,
      "ides": 1263,
      "vers": 1264,
      "Ġbo": 1265,
      "Ġbus": 1266,
      "ert": 1267,
      "ĠSt": 1268,
      "ĠAl": 1269,
      "ĠGrace": 1270,
      "GAR": 1271,
      "Ġtears": 1272,
      "PER": 1273,
      "Ġsound": 1274,
      "Ġyouth": 1275,
      "Ġstri": 1276,
      "BETH": 1277,
      "OP": 1278,
      "Ġban": 1279,
      "ates": 1280,
      "ĊĠĠ": 1281,
      "Ġadv": 1282,
      "Ġgrief": 1283,
      "gether": 1284,
      "Ġreason": 1285,
      "Ay": 1286,
      "uch": 1287,
      "Ġnews": 1288,
      "Ġhither": 1289,
      "Ġstre": 1290,
      "cious": 1291,
      "Ġcoun": 1292,
      "Ġlast": 1293,
      "ĠEd": 1294,
      "Ġbu": 1295,
      "ions": 1296,
      "ult": 1297,
      "LEON": 1298,
      "pl": 1299,
      "yal": 1300,
      "Ġshalt": 1301,
      "aj": 1302,
      "ec": 1303,
      "Ġsun": 1304,
      "An": 1305,
      "Go": 1306,
      "enry": 1307,
      "Ġfire": 1308,
      "ieve": 1309,
      "usic": 1310,
      "hold": 1311,
      "Ġenough": 1312,
      "ches": 1313,
      "eed": 1314,
      "Ġwel": 1315,
      "Ġdoes": 1316,
      "ichard": 1317,
      "Ġqueen": 1318,
      "Ġhelp": 1319,
      "av": 1320,
      "ined": 1321,
      "ĠAr": 1322,
      "ĠEngland": 1323,
      "ĠQueen": 1324,
      "peak": 1325,
      "BEL": 1326,
      "ike": 1327,
      "Ġsec": 1328,
      "Ġgentleman": 1329,
      "ced": 1330,
      "ily": 1331,
      "now": 1332,
      "Ġsince": 1333,
      "Ġgrace": 1334,
      "Ġfellow": 1335,
      "att": 1336,
      "ĠWho": 1337,
      "ĠMaster": 1338,
      "Ġent": 1339,
      "ouch": 1340,
      "ener": 1341,
      "Ġweep": 1342,
      "iz": 1343,
      "ject": 1344,
      "ĠHer": 1345,
      "Ġrather": 1346,
      "ĠYork": 1347,
      "Good": 1348,
      "OB": 1349,
      "Ġhang": 1350,
      "Ġmistress": 1351,
      "Ġcare": 1352,
      "Ġop": 1353,
      "Ġenem": 1354,
      "IM": 1355,
      "op": 1356,
      "Ġcap": 1357,
      "RUTUS": 1358,
      "day": 1359,
      "Ġhonest": 1360,
      "ween": 1361,
      "Ġstrong": 1362,
      "ĠPrince": 1363,
      "cester": 1364,
      "BRUTUS": 1365,
      "Ġinst": 1366,
      "Ġseen": 1367,
      "ĠThey": 1368,
      "Ġthrough": 1369,
      "Ġlay": 1370,
      "Ġland": 1371,
      "Ġwear": 1372,
      "Ġsaw": 1373,
      "Un": 1374,
      "dd": 1375,
      "use": 1376,
      "Ġdan": 1377,
      "Ġdevil": 1378,
      "Ġprince": 1379,
      "EUS": 1380,
      "pose": 1381,
      "Ġhigh": 1382,
      "Ġstrange": 1383,
      "Hath": 1384,
      "Ġread": 1385,
      "Ġjoy": 1386,
      "Ġenter": 1387,
      "Ġwithout": 1388,
      "ajesty": 1389,
      "mer": 1390,
      "ner": 1391,
      "Ġarms": 1392,
      "ĠWill": 1393,
      "ĠHenry": 1394,
      "OTHELLO": 1395,
      "iet": 1396,
      "rink": 1397,
      "Ġsorrow": 1398,
      "ats": 1399,
      "ents": 1400,
      "Ġyourself": 1401,
      "IAGO": 1402,
      "ROSAL": 1403,
      "IOL": 1404,
      "that": 1405,
      "Ġcousin": 1406,
      "Ġpers": 1407,
      "Ġunc": 1408,
      "ENTLE": 1409,
      "gs": 1410,
      "ken": 1411,
      "DY": 1412,
      "Ġsom": 1413,
      "Ġmeans": 1414,
      "FO": 1415,
      "Ġwant": 1416,
      "Ġlost": 1417,
      "Ġcommand": 1418,
      "Ġrun": 1419,
      "Ġtalk": 1420,
      "Ġsend": 1421,
      "like": 1422,
      "Ġremem": 1423,
      "ross": 1424,
      "Ġspo": 1425,
      "ĠEar": 1426,
      "Ġtherefore": 1427,
      "eft": 1428,
      "Ġwelcome": 1429,
      "Ġgrow": 1430,
      "urd": 1431,
      "ISTRESS": 1432,
      "MISTRESS": 1433,
      "tw": 1434,
      "Ġoft": 1435,
      "Ġspirit": 1436,
      "Ġreturn": 1437,
      "Ġsea": 1438,
      "ceive": 1439,
      "Ġlies": 1440,
      "ĠTro": 1441,
      "Ġbless": 1442,
      "CASS": 1443,
      "und": 1444,
      "Ġdraw": 1445,
      "Ġless": 1446,
      "vel": 1447,
      "Ġbeauty": 1448,
      "Ġpap": 1449,
      "Ġgre": 1450,
      "Ġhard": 1451,
      "aff": 1452,
      "Ġfoul": 1453,
      "ott": 1454,
      "Are": 1455,
      "ertain": 1456,
      "Ġitself": 1457,
      "LOUC": 1458,
      "LOUCESTER": 1459,
      "lou": 1460,
      "inc": 1461,
      "ater": 1462,
      "Ġalone": 1463,
      "ray": 1464,
      "Ġwo": 1465,
      "DEM": 1466,
      "NE": 1467,
      "wick": 1468,
      "Ġfore": 1469,
      "Ġleft": 1470,
      "Ġget": 1471,
      "Ġonly": 1472,
      "Ġneed": 1473,
      "ANTONY": 1474,
      "loucester": 1475,
      "At": 1476,
      "chan": 1477,
      "Ġcry": 1478,
      "Ġdel": 1479,
      "Ġswear": 1480,
      "gainst": 1481,
      "GER": 1482,
      "Ġtem": 1483,
      "Ġsing": 1484,
      "Ġsight": 1485,
      "Ġsick": 1486,
      "Ġfree": 1487,
      "Ġtogether": 1488,
      "ster": 1489,
      "roke": 1490,
      "Ġbreath": 1491,
      "Her": 1492,
      "UM": 1493,
      "ial": 1494,
      "ĠRichard": 1495,
      "Ġthoughts": 1496,
      "Ġwhy": 1497,
      "dom": 1498,
      "ored": 1499,
      "ĠAntony": 1500,
      "Ġhorse": 1501,
      "ENTLEMAN": 1502,
      "most": 1503,
      "gel": 1504,
      "Ġvo": 1505,
      "Ġprove": 1506,
      "ures": 1507,
      "ithe": 1508,
      "arwick": 1509,
      "Ġyours": 1510,
      "ANIO": 1511,
      "Ġ1": 1512,
      "ote": 1513,
      "eter": 1514,
      "Ġdesire": 1515,
      "outh": 1516,
      "Ġborn": 1517,
      "Ġprom": 1518,
      "Ġpity": 1519,
      "Ġpardon": 1520,
      "cei": 1521,
      "Ġsupp": 1522,
      "Whose": 1523,
      "COR": 1524,
      "az": 1525,
      "kes": 1526,
      "unt": 1527,
      "ĠIn": 1528,
      "Ġfortune": 1529,
      "sc": 1530,
      "Ġfly": 1531,
      "alth": 1532,
      "ĠNor": 1533,
      "Ġproud": 1534,
      "PE": 1535,
      "ues": 1536,
      "xt": 1537,
      "rest": 1538,
      "Ġden": 1539,
      "Ġtold": 1540,
      "Ġwish": 1541,
      "Ġexce": 1542,
      "Ġsays": 1543,
      "GLOUCESTER": 1544,
      "no": 1545,
      "Ġwilt": 1546,
      "Ġroyal": 1547,
      "Ġcountry": 1548,
      "Sh": 1549,
      "itor": 1550,
      "Ġdisp": 1551,
      "Ġjud": 1552,
      "Ġbusiness": 1553,
      "ever": 1554,
      "Ġsad": 1555,
      "Ġlate": 1556,
      "Ġinf": 1557,
      "Ġdef": 1558,
      "rench": 1559,
      "JUL": 1560,
      "LAND": 1561,
      "MEN": 1562,
      "Sir": 1563,
      "YOR": 1564,
      "ople": 1565,
      "ship": 1566,
      "omen": 1567,
      "Ġhalf": 1568,
      "ĠCass": 1569,
      "ĠYour": 1570,
      "Ġseek": 1571,
      "onder": 1572,
      "Ġlooks": 1573,
      "Ġearth": 1574,
      "On": 1575,
      "Tw": 1576,
      "so": 1577,
      "Ġgave": 1578,
      "Ġdist": 1579,
      "ads": 1580,
      "ERV": 1581,
      "Ġcomfort": 1582,
      "pped": 1583,
      "AGE": 1584,
      "FOOL": 1585,
      "DER": 1586,
      "Even": 1587,
      "ford": 1588,
      "Ġbri": 1589,
      "Ġfound": 1590,
      "Ġnear": 1591,
      "ounds": 1592,
      "oly": 1593,
      "Ġsil": 1594,
      "lish": 1595,
      "ham": 1596,
      "Ġstra": 1597,
      "Ġprison": 1598,
      "aking": 1599,
      "Ġbloody": 1600,
      "GH": 1601,
      "up": 1602,
      "Ġsk": 1603,
      "Ġreven": 1604,
      "Ġwork": 1605,
      "ithee": 1606,
      "Ġaw": 1607,
      "Ġsister": 1608,
      "ORT": 1609,
      "OW": 1610,
      "UNT": 1611,
      "LI": 1612,
      "ip": 1613,
      "rew": 1614,
      "alt": 1615,
      "DIO": 1616,
      "PRO": 1617,
      "Ġdare": 1618,
      "ains": 1619,
      "VOL": 1620,
      "Ġair": 1621,
      "Ġcold": 1622,
      "eneral": 1623,
      "Some": 1624,
      "Till": 1625,
      "Ġmoney": 1626,
      "MA": 1627,
      "TR": 1628,
      "iol": 1629,
      "ĠOr": 1630,
      "Ġservice": 1631,
      "Ġsame": 1632,
      "Ġbir": 1633,
      "Ġdru": 1634,
      "Ġdep": 1635,
      "aught": 1636,
      "arewell": 1637,
      "Ġdoubt": 1638,
      "Ġpaper": 1639,
      "Ġcra": 1640,
      "Ġoath": 1641,
      "Ġcalled": 1642,
      "ked": 1643,
      "Ġtend": 1644,
      "Ġmet": 1645,
      "Ġwin": 1646,
      "ĠWarwick": 1647,
      "OLI": 1648,
      "Ġquick": 1649,
      "oor": 1650,
      "Ġ2": 1651,
      "Ġeach": 1652,
      "Well": 1653,
      "YR": 1654,
      "my": 1655,
      "Ġsin": 1656,
      "ĠGloucester": 1657,
      "Ġfoot": 1658,
      "ments": 1659,
      "ling": 1660,
      "vor": 1661,
      "vent": 1662,
      "Ġtimes": 1663,
      "Ġdrink": 1664,
      "Ġlose": 1665,
      "Ġthyself": 1666,
      "Ġpeople": 1667,
      "Did": 1668,
      "ĠLORD": 1669,
      "ured": 1670,
      "unes": 1671,
      "Ġgives": 1672,
      "More": 1673,
      "CLE": 1674,
      "Give": 1675,
      "Nay": 1676,
      "TOR": 1677,
      "Would": 1678,
      "Ġcar": 1679,
      "oose": 1680,
      "Ġsoon": 1681,
      "Ġloves": 1682,
      "ELL": 1683,
      "Ġpurpose": 1684,
      "ĠEdward": 1685,
      "LY": 1686,
      "Ġlear": 1687,
      "utus": 1688,
      "essen": 1689,
      "Ġdays": 1690,
      "MAC": 1691,
      "Ġsit": 1692,
      "Ġint": 1693,
      "ĠAs": 1694,
      "ENGER": 1695,
      "ESSENGER": 1696,
      "TIMON": 1697,
      "aim": 1698,
      "ible": 1699,
      "Ġmusic": 1700,
      "Ġfur": 1701,
      "IND": 1702,
      "Ġdream": 1703,
      "cause": 1704,
      "ĠHis": 1705,
      "Ġbrought": 1706,
      "JA": 1707,
      "Ġlives": 1708,
      "olk": 1709,
      "Was": 1710,
      "bb": 1711,
      "Ġwa": 1712,
      "thing": 1713,
      "INIUS": 1714,
      "ĠLady": 1715,
      "Ġfare": 1716,
      "Ġpleas": 1717,
      "DES": 1718,
      "TA": 1719,
      "ior": 1720,
      "rem": 1721,
      "Ġcho": 1722,
      "Ġattend": 1723,
      "Ġbeseech": 1724,
      "Ġage": 1725,
      "Ġcond": 1726,
      "ĠWhen": 1727,
      "Though": 1728,
      "ices": 1729,
      "ATRA": 1730,
      "LADY": 1731,
      "OPATRA": 1732,
      "Ġdanger": 1733,
      "CLEOPATRA": 1734,
      "HEL": 1735,
      "Ġter": 1736,
      "ĠSYR": 1737,
      "Ġdeep": 1738,
      "USE": 1739,
      "ĠFrench": 1740,
      "ACUSE": 1741,
      "YORK": 1742,
      "ĠSYRACUSE": 1743,
      "ATHER": 1744,
      "TES": 1745,
      "gue": 1746,
      "sh": 1747,
      "Ġaff": 1748,
      "Ġred": 1749,
      "ift": 1750,
      "Ġkne": 1751,
      "OLK": 1752,
      "osed": 1753,
      "Ġcompany": 1754,
      "Ġdam": 1755,
      "stand": 1756,
      "Ġknows": 1757,
      "ROSALIND": 1758,
      "BEN": 1759,
      "Ġmin": 1760,
      "ened": 1761,
      "CHIO": 1762,
      "ANTI": 1763,
      "ILIA": 1764,
      "Ġyield": 1765,
      "adam": 1766,
      "ĠFri": 1767,
      "fection": 1768,
      "ELIA": 1769,
      "Ġworthy": 1770,
      "Ġcharge": 1771,
      "GARET": 1772,
      "Like": 1773,
      "PAR": 1774,
      "rer": 1775,
      "Ġfield": 1776,
      "ĠHigh": 1777,
      "IRD": 1778,
      "HN": 1779,
      "OHN": 1780,
      "Ġsuff": 1781,
      "ief": 1782,
      "THIRD": 1783,
      "Ġcontent": 1784,
      "IMO": 1785,
      "ATHERINE": 1786,
      "?--": 1787,
      "PET": 1788,
      "but": 1789,
      "hal": 1790,
      "ots": 1791,
      "enty": 1792,
      "Ġloved": 1793,
      "ĠNot": 1794,
      "aud": 1795,
      "BAST": 1796,
      "Ġhappy": 1797,
      ")]": 1798,
      "Ġcertain": 1799,
      "Ġknight": 1800,
      "Ġwhite": 1801,
      "oward": 1802,
      "Ġrec": 1803,
      "Ġtrust": 1804,
      "Ġgrave": 1805,
      "AS": 1806,
      "Ġbound": 1807,
      "Ġfit": 1808,
      "ĠMajesty": 1809,
      "ething": 1810,
      "Ġcommon": 1811,
      "VIA": 1812,
      "WARD": 1813,
      "your": 1814,
      "Ġwise": 1815,
      "=====": 1816,
      "bs": 1817,
      "onight": 1818,
      "ANUS": 1819,
      "estion": 1820,
      "Ġring": 1821,
      "Ġholy": 1822,
      "Ġbetween": 1823,
      "BOY": 1824,
      "ĠAttend": 1825,
      "Ġfour": 1826,
      "Ġfea": 1827,
      "Ġyears": 1828,
      "Ġpast": 1829,
      "Ġsum": 1830,
      "ĠGENTLEMAN": 1831,
      "oss": 1832,
      "Ġsur": 1833,
      "Ġbar": 1834,
      "Ġcor": 1835,
      "ĠPer": 1836,
      "Ġblack": 1837,
      "Ġknown": 1838,
      "ACT": 1839,
      "Ġforg": 1840,
      "Ġgracious": 1841,
      "Ġpleasure": 1842,
      "Ġgiven": 1843,
      "Ġbelieve": 1844,
      "Ġfurther": 1845,
      "PAND": 1846,
      "oll": 1847,
      "Ġact": 1848,
      "LEAR": 1849,
      "Ġposs": 1850,
      "Therefore": 1851,
      "Ġvirtue": 1852,
      "WICK": 1853,
      "gar": 1854,
      "Ġbold": 1855,
      "Ġpay": 1856,
      "ries": 1857,
      "ANCE": 1858,
      "ARWICK": 1859,
      "Ġexp": 1860,
      "Ġmark": 1861,
      "Ġten": 1862,
      "Ġac": 1863,
      "ery": 1864,
      "Ġcut": 1865,
      "Ġhell": 1866,
      "Ġinc": 1867,
      "entio": 1868,
      "iece": 1869,
      "Were": 1870,
      "vo": 1871,
      "Ġ3": 1872,
      "Ġsovere": 1873,
      "hil": 1874,
      "ĠHighness": 1875,
      "Ġsake": 1876,
      "Ġwhile": 1877,
      "onor": 1878,
      "ĠAll": 1879,
      "ĠCh": 1880,
      "ALL": 1881,
      "Ġheavy": 1882,
      "Ġwarrant": 1883,
      "Ġbrave": 1884,
      "Ġuncle": 1885,
      "night": 1886,
      "owers": 1887,
      "Ġlead": 1888,
      "essenger": 1889,
      "MER": 1890,
      "him": 1891,
      "inks": 1892,
      "Ġpraise": 1893,
      "!\"": 1894,
      "CO": 1895,
      "EPH": 1896,
      "WARWICK": 1897,
      "ĠEnter": 1898,
      "Ġemb": 1899,
      "OLUS": 1900,
      "ortal": 1901,
      "Ġrich": 1902,
      "PHOLUS": 1903,
      "ANTIPHOLUS": 1904,
      "HER": 1905,
      "Look": 1906,
      "Ġgeneral": 1907,
      "ceed": 1908,
      "Ġears": 1909,
      "Ġste": 1910,
      "Ġfault": 1911,
      "Ġgoes": 1912,
      "ĠTherefore": 1913,
      "Ġserve": 1914,
      "Ġground": 1915,
      "Can": 1916,
      "iant": 1917,
      "Ġpar": 1918,
      "oof": 1919,
      "Ġprof": 1920,
      "ĠPray": 1921,
      "Ġchee": 1922,
      "ĠFriar": 1923,
      "Ġmorn": 1924,
      "rel": 1925,
      "Ġgar": 1926,
      "Ġhate": 1927,
      "Ġothers": 1928,
      "MESSENGER": 1929,
      "ated": 1930,
      "Ġdev": 1931,
      "Ġreport": 1932,
      "May": 1933,
      "ired": 1934,
      "Ġside": 1935,
      "These": 1936,
      "ĠServ": 1937,
      "Ġmercy": 1938,
      "ĠEnglish": 1939,
      "ĠBrutus": 1940,
      "more": 1941,
      "Ġburn": 1942,
      "Ġdro": 1943,
      "ush": 1944,
      "Ġrequ": 1945,
      "ĠYet": 1946,
      "were": 1947,
      ".)]": 1948,
      "ĠHel": 1949,
      "ĠPage": 1950,
      "Ġmarry": 1951,
      "VAL": 1952,
      "morrow": 1953,
      "ARUS": 1954,
      "EMILIA": 1955,
      "Ġenemy": 1956,
      "Ġsign": 1957,
      "Ġhot": 1958,
      "Ġgall": 1959,
      "imon": 1960,
      "Ġweak": 1961,
      "Ġdoor": 1962,
      "Ġshort": 1963,
      "Ġhearts": 1964,
      "Ġcourse": 1965,
      "Ġvoice": 1966,
      "ceived": 1967,
      "CTOR": 1968,
      "Ġtonight": 1969,
      "Ġwomen": 1970,
      "esh": 1971,
      "Ġlad": 1972,
      "Ġbeat": 1973,
      "Ġeat": 1974,
      "Ġsuit": 1975,
      "ONA": 1976,
      "pr": 1977,
      "Ġwis": 1978,
      "urs": 1979,
      "Ġask": 1980,
      "Ġperson": 1981,
      "ges": 1982,
      "Ġcreat": 1983,
      "Ġtomorrow": 1984,
      "Ġaside": 1985,
      "Ġknew": 1986,
      "Ġsons": 1987,
      "Ġsubject": 1988,
      "Ġtender": 1989,
      "AP": 1990,
      "ives": 1991,
      "rous": 1992,
      "owed": 1993,
      "Ġlips": 1994,
      "Ġvis": 1995,
      "rows": 1996,
      "Ġthemselves": 1997,
      "osom": 1998,
      "Ġdesp": 1999,
      "Ġdeser": 2000,
      "Ġconfess": 2001,
      "will": 2002,
      "Ġmock": 2003,
      "ĠMAR": 2004,
      "ENCE": 2005,
      "Ġcounsel": 2006,
      "HELEN": 2007,
      "weet": 2008,
      "Ġest": 2009,
      "Ġbehold": 2010,
      "ĠCap": 2011,
      "ĠMistress": 2012,
      "thy": 2013,
      "Ġjo": 2014,
      "Ġtook": 2015,
      "LAU": 2016,
      "DEMONA": 2017,
      "DESDEMONA": 2018,
      "Ġmouth": 2019,
      "ones": 2020,
      "Ġfast": 2021,
      "umber": 2022,
      "Ġpatience": 2023,
      "DROM": 2024,
      "EO": 2025,
      "God": 2026,
      "KATHERINE": 2027,
      "uous": 2028,
      "Ġwalk": 2029,
      "lly": 2030,
      "Ġcol": 2031,
      "Ġdeed": 2032,
      "ENIUS": 2033,
      "Ġmerry": 2034,
      "ROMEO": 2035,
      "Ġremember": 2036,
      "MENENIUS": 2037,
      "DROMIO": 2038,
      "CLAU": 2039,
      "Ġwhe": 2040,
      "ites": 2041,
      "ities": 2042,
      "Ġhair": 2043,
      "Ġspeed": 2044,
      "ĠRoman": 2045,
      "ague": 2046,
      "ISA": 2047,
      "Ġentreat": 2048,
      "SU": 2049,
      "Ġbosom": 2050,
      "alm": 2051,
      "Ġknave": 2052,
      "Ġnext": 2053,
      "fter": 2054,
      "Ġwoo": 2055,
      "Ġwret": 2056,
      "Ġcle": 2057,
      "ĠMarry": 2058,
      "Ġworse": 2059,
      "ethinks": 2060,
      "Ġhaste": 2061,
      "RUCHIO": 2062,
      "OWNE": 2063,
      "PETRUCHIO": 2064,
      "CLAUDIO": 2065,
      "Had": 2066,
      "Ġdra": 2067,
      "Ġgro": 2068,
      "aste": 2069,
      "Ġneither": 2070,
      "ally": 2071,
      "Ġcanst": 2072,
      "ully": 2073,
      "BEROWNE": 2074,
      "Ġfeel": 2075,
      "Ġsovereign": 2076,
      "Lord": 2077,
      "ready": 2078,
      "Ġbase": 2079,
      "ask": 2080,
      "ends": 2081,
      "ĠEm": 2082,
      "Ġstands": 2083,
      "IDA": 2084,
      "Ġsoldier": 2085,
      "sue": 2086,
      "Ġwater": 2087,
      "rey": 2088,
      "ourish": 2089,
      "othing": 2090,
      "Ġpoint": 2091,
      "ĠEarth": 2092,
      "Ġduty": 2093,
      "Ġlam": 2094,
      "each": 2095,
      "Ġself": 2096,
      "OLD": 2097,
      "Ġgentlemen": 2098,
      "Ġfarewell": 2099,
      "Ġbatt": 2100,
      "Ġcr": 2101,
      "Ġtoward": 2102,
      "Ġfavor": 2103,
      "Ġsave": 2104,
      "Ġscorn": 2105,
      "ixt": 2106,
      "Ġstraight": 2107,
      "HOST": 2108,
      "UT": 2109,
      "ires": 2110,
      "ob": 2111,
      "ĠGive": 2112,
      "ĠHector": 2113,
      "ĠJOHN": 2114,
      "ENTINE": 2115,
      "CRESS": 2116,
      "Ġdark": 2117,
      "Ġpen": 2118,
      "Ġdog": 2119,
      "ortune": 2120,
      "umb": 2121,
      "oldiers": 2122,
      "LOW": 2123,
      "ĠYes": 2124,
      "Ġglad": 2125,
      "BELLA": 2126,
      "Ġopen": 2127,
      "PANDARUS": 2128,
      "CRESSIDA": 2129,
      "CAL": 2130,
      "One": 2131,
      "ging": 2132,
      "pare": 2133,
      "Ġlab": 2134,
      "Ġthri": 2135,
      "used": 2136,
      "cks": 2137,
      "ardin": 2138,
      "Ġrose": 2139,
      "Ġchange": 2140,
      "Ġdiv": 2141,
      "OBY": 2142,
      "Ġsomething": 2143,
      "VALENTINE": 2144,
      "TOBY": 2145,
      "cher": 2146,
      "Ġord": 2147,
      "Ġforward": 2148,
      "riage": 2149,
      "rah": 2150,
      "Ġtraitor": 2151,
      "Should": 2152,
      "VOLIO": 2153,
      "ca": 2154,
      "vol": 2155,
      "Ġ(": 2156,
      "Ġta": 2157,
      "Ġwall": 2158,
      "Ġbad": 2159,
      "Ġtoday": 2160,
      "staff": 2161,
      "iled": 2162,
      "Ġquestion": 2163,
      "ATO": 2164,
      "Ġappro": 2165,
      "Ġpret": 2166,
      "Ġservant": 2167,
      "ANTONIO": 2168,
      "ĠMARGARET": 2169,
      "Com": 2170,
      "bury": 2171,
      "Ġcast": 2172,
      "Ġcoward": 2173,
      "urse": 2174,
      "ĠPar": 2175,
      "Ġstreng": 2176,
      "IOLANUS": 2177,
      "ĠAttendants": 2178,
      "Re": 2179,
      "TEUS": 2180,
      "ses": 2181,
      "Ġhur": 2182,
      "Ġtown": 2183,
      "Ġnote": 2184,
      "ters": 2185,
      "Ġcoming": 2186,
      "SHAL": 2187,
      "CORIOLANUS": 2188,
      "PROTEUS": 2189,
      "hood": 2190,
      "Ġsat": 2191,
      "Ġcity": 2192,
      "set": 2193,
      "ERD": 2194,
      "Ġsport": 2195,
      "Ġspoke": 2196,
      "Ġwoe": 2197,
      "Since": 2198,
      "Ġaction": 2199,
      "Ġwonder": 2200,
      "have": 2201,
      "Ġopp": 2202,
      "irm": 2203,
      "ĠLook": 2204,
      "Ġext": 2205,
      "Ġspeech": 2206,
      "Ġbegin": 2207,
      "Ġharm": 2208,
      "Ġjustice": 2209,
      "Ġvaliant": 2210,
      "MACBETH": 2211,
      "Ġwatch": 2212,
      "Ġpale": 2213,
      "astard": 2214,
      "Thus": 2215,
      "feit": 2216,
      "ians": 2217,
      "FORD": 2218,
      "Make": 2219,
      "Ġfra": 2220,
      "eness": 2221,
      "Ġem": 2222,
      "Ġunt": 2223,
      "als": 2224,
      "alstaff": 2225,
      "ĠWith": 2226,
      "ĠLe": 2227,
      "ilus": 2228,
      "Ġneeds": 2229,
      "Ġran": 2230,
      "Ġpluck": 2231,
      "Ġdidst": 2232,
      "Ġquar": 2233,
      "KINGHAM": 2234,
      "UCKINGHAM": 2235,
      "Ġ4": 2236,
      "Their": 2237,
      "========": 2238,
      "Ġprop": 2239,
      "Ġalmost": 2240,
      "Ġflesh": 2241,
      "Ġtwenty": 2242,
      "Ġhours": 2243,
      "Ġguard": 2244,
      "Ġpresently": 2245,
      "urder": 2246,
      "\"?": 2247,
      "gment": 2248,
      "Ġstir": 2249,
      "Ġreg": 2250,
      "OLLES": 2251,
      "Ġtrump": 2252,
      "ainted": 2253,
      "Ġliege": 2254,
      "Ġrespect": 2255,
      "dden": 2256,
      "Ġrevenge": 2257,
      "PAROLLES": 2258,
      "BAN": 2259,
      "BUCKINGHAM": 2260,
      "FL": 2261,
      "IER": 2262,
      "NOR": 2263,
      "over": 2264,
      "ron": 2265,
      "Ġtit": 2266,
      "ines": 2267,
      "Ġdire": 2268,
      "Ġlust": 2269,
      "Ġloss": 2270,
      "rust": 2271,
      "LEONATO": 2272,
      "Take": 2273,
      "Ġmod": 2274,
      "Ġcross": 2275,
      "ĠSe": 2276,
      "ESUS": 2277,
      "ĠEPH": 2278,
      "Ġmarried": 2279,
      "FFOLK": 2280,
      "Ġperfor": 2281,
      "Ġadd": 2282,
      "ĠEPHESUS": 2283,
      "Against": 2284,
      "Ġmortal": 2285,
      "Ġlack": 2286,
      "ang": 2287,
      "Ġheir": 2288,
      "oop": 2289,
      "Ġund": 2290,
      "ALAM": 2291,
      "Ġoffend": 2292,
      "ressed": 2293,
      "ALAMON": 2294,
      "PALAMON": 2295,
      "Ġbook": 2296,
      "ingham": 2297,
      "ESAR": 2298,
      "Ġplain": 2299,
      "Ġtrou": 2300,
      "Ġslain": 2301,
      "Ġmoon": 2302,
      "Ar": 2303,
      "Wh": 2304,
      "bit": 2305,
      "bly": 2306,
      "ises": 2307,
      "Ġhide": 2308,
      "cked": 2309,
      "Ġ[(": 2310,
      "Ġatt": 2311,
      "Ġprithee": 2312,
      "EDICK": 2313,
      "CASSIUS": 2314,
      "SUFFOLK": 2315,
      "Ġstrength": 2316,
      "Ġty": 2317,
      "Ġwars": 2318,
      "Ġlow": 2319,
      "arence": 2320,
      "Ġheavens": 2321,
      "BENEDICK": 2322,
      "audio": 2323,
      "DWARD": 2324,
      "GR": 2325,
      "Ġtakes": 2326,
      "Ġinter": 2327,
      "Ġbecome": 2328,
      "Ġforb": 2329,
      "ram": 2330,
      "artius": 2331,
      "ĠEDWARD": 2332,
      "Ġras": 2333,
      "Ġspeaks": 2334,
      "Ġclose": 2335,
      "CAESAR": 2336,
      "Ġdeny": 2337,
      "SHALLOW": 2338,
      "AD": 2339,
      "Must": 2340,
      "PORT": 2341,
      "ict": 2342,
      "Ġbond": 2343,
      "Ġgrant": 2344,
      "Ġbeast": 2345,
      "ird": 2346,
      "ĠSha": 2347,
      "ĠTit": 2348,
      "ROIL": 2349,
      "Ġalready": 2350,
      "Ġappear": 2351,
      "ĠLucentio": 2352,
      "Ġmorning": 2353,
      "PORTIA": 2354,
      "ROILUS": 2355,
      "BUR": 2356,
      "CUS": 2357,
      "Most": 2358,
      "TROILUS": 2359,
      "ares": 2360,
      "cess": 2361,
      "cience": 2362,
      "mand": 2363,
      "ny": 2364,
      "pes": 2365,
      "Ġsense": 2366,
      "Ġwild": 2367,
      "llent": 2368,
      "ĠFool": 2369,
      "empt": 2370,
      "Ġabove": 2371,
      "Ġwithal": 2372,
      "Ġshows": 2373,
      "BOT": 2374,
      "Ġfeast": 2375,
      "CIT": 2376,
      "HOR": 2377,
      "Say": 2378,
      "gry": 2379,
      "his": 2380,
      "hind": 2381,
      "mber": 2382,
      "under": 2383,
      "Ġbro": 2384,
      "Ġcarry": 2385,
      "ench": 2386,
      "ution": 2387,
      "ĠPl": 2388,
      "ĠPro": 2389,
      "Ġbreast": 2390,
      "CITE": 2391,
      "ler": 2392,
      "su": 2393,
      "Ġtouch": 2394,
      "Ġmot": 2395,
      "ashi": 2396,
      "Ġsoft": 2397,
      "ARCITE": 2398,
      "Ġsudden": 2399,
      "Ġvile": 2400,
      "ĠRe": 2401,
      "Ġwrit": 2402,
      "Ġrage": 2403,
      "TITUS": 2404,
      "ught": 2405,
      "Ġid": 2406,
      "inces": 2407,
      "Ġmount": 2408,
      "Ġind": 2409,
      "etch": 2410,
      "ĠThese": 2411,
      "Ġsworn": 2412,
      "Ġkingdom": 2413,
      "uckingham": 2414,
      "ĠRomeo": 2415,
      "ĠCassio": 2416,
      "DAU": 2417,
      "EW": 2418,
      "See": 2419,
      "con": 2420,
      "pher": 2421,
      "Ġhaving": 2422,
      "Ġshad": 2423,
      "ĠPom": 2424,
      "Ġconst": 2425,
      "ĠJul": 2426,
      "Ġoffice": 2427,
      "Ġsoldiers": 2428,
      "ISABELLA": 2429,
      "ardinal": 2430,
      "ITI": 2431,
      "MAL": 2432,
      "POL": 2433,
      "nk": 2434,
      "ug": 2435,
      "Ġshi": 2436,
      "Ġsigh": 2437,
      "Ġpit": 2438,
      "anc": 2439,
      "rac": 2440,
      "Ġthanks": 2441,
      "Ġtruly": 2442,
      "Ġabs": 2443,
      "Ġscar": 2444,
      "Ġslave": 2445,
      "Ġgrie": 2446,
      "Ġkilled": 2447,
      "Ġpriv": 2448,
      "Ġspirits": 2449,
      "Ġdread": 2450,
      "BUS": 2451,
      "Fl": 2452,
      "Pro": 2453,
      "eem": 2454,
      "ffect": 2455,
      "rist": 2456,
      "Ġmove": 2457,
      "alb": 2458,
      "Ġready": 2459,
      "ĠSoldiers": 2460,
      "ĠAd": 2461,
      "ĠThy": 2462,
      "ORLAND": 2463,
      "umph": 2464,
      "Ġjest": 2465,
      "Before": 2466,
      "Ġchildren": 2467,
      "LUCIUS": 2468,
      "uffolk": 2469,
      "GON": 2470,
      "IET": 2471,
      "gare": 2472,
      "ting": 2473,
      "ANG": 2474,
      "Ġdish": 2475,
      "LEONTES": 2476,
      "JULIET": 2477,
      "SIC": 2478,
      "Ġve": 2479,
      "Ġloving": 2480,
      "fere": 2481,
      "Ġhonorable": 2482,
      "Ġinstru": 2483,
      "'re": 2484,
      "KENT": 2485,
      "Out": 2486,
      "ying": 2487,
      "Ġwound": 2488,
      "ĠHa": 2489,
      "INA": 2490,
      "ĠFl": 2491,
      "ĠFalstaff": 2492,
      "antage": 2493,
      "Ġwhole": 2494,
      "eful": 2495,
      "claim": 2496,
      "ISTOL": 2497,
      "Ġletters": 2498,
      "undred": 2499,
      "COUNT": 2500,
      "Ah": 2501,
      "ZA": 2502,
      "Ġmorrow": 2503,
      "Ġble": 2504,
      "rage": 2505,
      "Ġliber": 2506,
      "Ġkings": 2507,
      "ĠGany": 2508,
      "asters": 2509,
      "liver": 2510,
      "mede": 2511,
      "ĠGanymede": 2512,
      "PISTOL": 2513,
      "VIOL": 2514,
      "broke": 2515,
      "king": 2516,
      "via": 2517,
      "Ġstru": 2518,
      "Ġsteal": 2519,
      "Ġliving": 2520,
      "Ġdeeds": 2521,
      "ĠFortune": 2522,
      "resh": 2523,
      "ĠLordship": 2524,
      "Ġadm": 2525,
      "Ġpassion": 2526,
      "Ġfortunes": 2527,
      "VIOLA": 2528,
      "ACH": 2529,
      "Such": 2530,
      "isf": 2531,
      "ern": 2532,
      "Ġfat": 2533,
      "anio": 2534,
      "Ġform": 2535,
      "Ġrel": 2536,
      "ĠMac": 2537,
      "ESEUS": 2538,
      "aken": 2539,
      "THESEUS": 2540,
      "ĠProte": 2541,
      "IANA": 2542,
      "Ġbattle": 2543,
      "GEN": 2544,
      "SP": 2545,
      "aith": 2546,
      "oint": 2547,
      "Ġsho": 2548,
      "Ġfam": 2549,
      "enge": 2550,
      "ature": 2551,
      "Ġeither": 2552,
      "Ġeffect": 2553,
      "amlet": 2554,
      "ĠChar": 2555,
      "ĠTimon": 2556,
      "rum": 2557,
      "olph": 2558,
      "ICLES": 2559,
      "Ġunderstand": 2560,
      "ĠClaudio": 2561,
      "PERICLES": 2562,
      "Ġstrike": 2563,
      "ORLANDO": 2564,
      "sp": 2565,
      "Ġmist": 2566,
      "Ġlim": 2567,
      "ider": 2568,
      "ĠRos": 2569,
      "pey": 2570,
      "bey": 2571,
      "Ġresol": 2572,
      "Ġseems": 2573,
      "ĠTroilus": 2574,
      "OLIVIA": 2575,
      "Ġpretty": 2576,
      "PA": 2577,
      "eep": 2578,
      "gan": 2579,
      "ls": 2580,
      "Ġgot": 2581,
      "Ġforce": 2582,
      "ardolph": 2583,
      "Ġpride": 2584,
      "Ġpoison": 2585,
      "ations": 2586,
      "Ġmarriage": 2587,
      "IMOGEN": 2588,
      "hilst": 2589,
      "SICINIUS": 2590,
      "'d": 2591,
      "PAGE": 2592,
      "Speak": 2593,
      "SPE": 2594,
      "VER": 2595,
      "uri": 2596,
      "wor": 2597,
      "ĠU": 2598,
      "Ġbit": 2599,
      "arum": 2600,
      "right": 2601,
      "ĠSERV": 2602,
      "Ġgod": 2603,
      "elcome": 2604,
      "Ġpossess": 2605,
      "ashion": 2606,
      "SPEED": 2607,
      "ZEN": 2608,
      "head": 2609,
      "Ġag": 2610,
      "ited": 2611,
      "Ġfing": 2612,
      "Ġbehind": 2613,
      "ĠSom": 2614,
      "ĠSEN": 2615,
      "ĠTru": 2616,
      "Ġexc": 2617,
      "ĠDe": 2618,
      "ignior": 2619,
      "Ġsomet": 2620,
      "Ġjudgment": 2621,
      "ITIZEN": 2622,
      "aves": 2623,
      "bed": 2624,
      "fully": 2625,
      "Ġmir": 2626,
      "read": 2627,
      "Ġhundred": 2628,
      "ĠSy": 2629,
      "ieu": 2630,
      "ELO": 2631,
      "Ġwitness": 2632,
      "gelo": 2633,
      "OLDIER": 2634,
      "ANGELO": 2635,
      "Farewell": 2636,
      "Tell": 2637,
      "YM": 2638,
      "oved": 2639,
      "Ġmal": 2640,
      "Ġbab": 2641,
      "Ġduke": 2642,
      "leep": 2643,
      "Ġreb": 2644,
      "ĠShall": 2645,
      "ĠSuffolk": 2646,
      "vern": 2647,
      "though": 2648,
      "ARBUS": 2649,
      "ĠPAGE": 2650,
      "Ġexec": 2651,
      "iew": 2652,
      "ults": 2653,
      "Ġconqu": 2654,
      "aunt": 2655,
      "Ġchamber": 2656,
      "Ġheads": 2657,
      "Ġsouls": 2658,
      "Ġsuffer": 2659,
      "EPHERD": 2660,
      "garet": 2661,
      "GU": 2662,
      "LANCE": 2663,
      "PROS": 2664,
      "ax": 2665,
      "br": 2666,
      "Ġut": 2667,
      "Ġdied": 2668,
      "Ġcase": 2669,
      "Ġpu": 2670,
      "Ġeas": 2671,
      "Ġissue": 2672,
      "idd": 2673,
      "ĠTake": 2674,
      "ENOB": 2675,
      "ONE": 2676,
      "CHAR": 2677,
      "peror": 2678,
      "Ġaffection": 2679,
      "Ġconscience": 2680,
      "Ġcheer": 2681,
      "PERO": 2682,
      "Ġbanished": 2683,
      "Ġsecond": 2684,
      "Ġenemies": 2685,
      "Ġbirth": 2686,
      "Ġladies": 2687,
      "Ġquarrel": 2688,
      "PROSPERO": 2689,
      "ENOBARBUS": 2690,
      "BRO": 2691,
      "dor": 2692,
      "iam": 2693,
      "ners": 2694,
      "nown": 2695,
      "Ġfill": 2696,
      "ancy": 2697,
      "Ġhealth": 2698,
      "Ġlion": 2699,
      "ĠBuckingham": 2700,
      "Ġwouldst": 2701,
      "Ġalong": 2702,
      "ATIO": 2703,
      "Ġanything": 2704,
      "aced": 2705,
      "Ġmighty": 2706,
      "ĠClarence": 2707,
      "Ġchance": 2708,
      "SHEPHERD": 2709,
      "Ġoften": 2710,
      "HORATIO": 2711,
      "albot": 2712,
      "BOL": 2713,
      "gl": 2714,
      "kind": 2715,
      "Ġtale": 2716,
      "Ġsim": 2717,
      "Ġmain": 2718,
      "Ġcou": 2719,
      "Ġpain": 2720,
      "Ġpost": 2721,
      "Ġemp": 2722,
      "ĠHave": 2723,
      "ĠHarry": 2724,
      "aked": 2725,
      "Ġsmall": 2726,
      "LUCIO": 2727,
      "REY": 2728,
      "Ġvalor": 2729,
      "CASSIO": 2730,
      "SERV": 2731,
      "can": 2732,
      "Ġcru": 2733,
      "Ġbears": 2734,
      "ĠWould": 2735,
      "ĠCount": 2736,
      "this": 2737,
      "hose": 2738,
      "ATRI": 2739,
      "ĠAngelo": 2740,
      "DOCTOR": 2741,
      "ealous": 2742,
      "Ġbuy": 2743,
      "Ġblessed": 2744,
      "ĠHelen": 2745,
      "Ġtitle": 2746,
      "gers": 2747,
      "ze": 2748,
      "Ġfive": 2749,
      "onio": 2750,
      "Ġdull": 2751,
      "lex": 2752,
      "ĠSpeak": 2753,
      "Ġnoise": 2754,
      "ilia": 2755,
      "ume": 2756,
      "ages": 2757,
      "Ġleast": 2758,
      "Being": 2759,
      "bled": 2760,
      "ĠLucius": 2761,
      "Ġawhile": 2762,
      "Ġacqu": 2763,
      "CELIA": 2764,
      "OT": 2765,
      "rs": 2766,
      "would": 2767,
      "Ġfine": 2768,
      "ona": 2769,
      "Ġstep": 2770,
      "ural": 2771,
      "ĠBol": 2772,
      "ils": 2773,
      "ĠOur": 2774,
      "icked": 2775,
      "Ġparts": 2776,
      "Ġlonger": 2777,
      "Ġfeed": 2778,
      "LORD": 2779,
      "gin": 2780,
      "ollow": 2781,
      "ual": 2782,
      "Ġteach": 2783,
      "Ġwast": 2784,
      "Ġbow": 2785,
      "illes": 2786,
      "Ġrevere": 2787,
      "ĠSc": 2788,
      "Ġshar": 2789,
      "ĠCor": 2790,
      "icles": 2791,
      "Ġprinces": 2792,
      "Ġsafe": 2793,
      "Ġoffense": 2794,
      "bert": 2795,
      "Ġkept": 2796,
      "comes": 2797,
      "JULIA": 2798,
      "ĠPompey": 2799,
      "Con": 2800,
      "Ex": 2801,
      "LAR": 2802,
      "SIR": 2803,
      "sed": 2804,
      "ub": 2805,
      "Ġdrown": 2806,
      "cept": 2807,
      "ley": 2808,
      "urde": 2809,
      "ĠMessenger": 2810,
      "ĠTy": 2811,
      "ĠTalbot": 2812,
      "ument": 2813,
      "INGMAN": 2814,
      "them": 2815,
      "Ġarmy": 2816,
      "BEATRI": 2817,
      "Ġhumor": 2818,
      "Ġpatient": 2819,
      "Ġdepart": 2820,
      "Ġlabor": 2821,
      "pherd": 2822,
      "BEATRICE": 2823,
      "Madam": 2824,
      "Ġer": 2825,
      "Ġsor": 2826,
      "Ġlan": 2827,
      "Ġlaugh": 2828,
      "arch": 2829,
      "ĠSay": 2830,
      "Ġsole": 2831,
      "ĠMay": 2832,
      "ify": 2833,
      "ago": 2834,
      "URDER": 2835,
      "Ġcurse": 2836,
      "ĠMargaret": 2837,
      "Ġexcellent": 2838,
      "URDERER": 2839,
      "CESS": 2840,
      "LEN": 2841,
      "Pr": 2842,
      "cha": 2843,
      "woman": 2844,
      "Ġign": 2845,
      "Ġmurder": 2846,
      "Ġwed": 2847,
      "Ġwent": 2848,
      "Ġfashion": 2849,
      "Ġdies": 2850,
      "ingly": 2851,
      "Ġforget": 2852,
      "alam": 2853,
      "Ġseal": 2854,
      "Ġanc": 2855,
      "Ġangry": 2856,
      "ĠLove": 2857,
      "Ġworst": 2858,
      "ĠKate": 2859,
      "Ġwrite": 2860,
      "Ġchoose": 2861,
      "ĠEarl": 2862,
      "Ġpromise": 2863,
      "sper": 2864,
      "Ġ5": 2865,
      "Ġtent": 2866,
      "heart": 2867,
      "erve": 2868,
      "Ġdec": 2869,
      "Ġsucc": 2870,
      "Ġfaults": 2871,
      "Ġviol": 2872,
      "Ġourselves": 2873,
      "ĠDid": 2874,
      "OLPH": 2875,
      "Ġblow": 2876,
      "ĠELI": 2877,
      "Ġqual": 2878,
      "ARDOLPH": 2879,
      "PRINCESS": 2880,
      "Ġvirtuous": 2881,
      "OMPE": 2882,
      "ĠChrist": 2883,
      "ZABETH": 2884,
      "ĠELIZABETH": 2885,
      "HOT": 2886,
      "che": 2887,
      "joy": 2888,
      "uce": 2889,
      "Ġfresh": 2890,
      "omed": 2891,
      "Ġbeard": 2892,
      "ames": 2893,
      "Ġsever": 2894,
      "ARMA": 2895,
      "Ġview": 2896,
      "Ġgoing": 2897,
      "Ġround": 2898,
      "Ġlooked": 2899,
      "Ġpresence": 2900,
      "BERTR": 2901,
      "Ġcaptain": 2902,
      "SPUR": 2903,
      "OMPEY": 2904,
      "HOTSPUR": 2905,
      "ARMADO": 2906,
      "BERTRAM": 2907,
      "DE": 2908,
      "NUR": 2909,
      "POMPEY": 2910,
      "Sweet": 2911,
      "ude": 2912,
      "Ġocc": 2913,
      "Ġyear": 2914,
      "ract": 2915,
      "Ġstar": 2916,
      "ĠHamlet": 2917,
      "Ġshake": 2918,
      "ĠCan": 2919,
      "ĠMartius": 2920,
      "Ġknock": 2921,
      "Ġvain": 2922,
      "Ġblind": 2923,
      "ĠEx": 2924,
      "ĠRI": 2925,
      "CHESS": 2926,
      "ANTUS": 2927,
      "ATOR": 2928,
      "EMANTUS": 2929,
      "Ġremain": 2930,
      "DUCHESS": 2931,
      "ledge": 2932,
      "Ġconsent": 2933,
      "Ġturned": 2934,
      "Alas": 2935,
      "ĠAlas": 2936,
      "Ġentertain": 2937,
      "Ġdelight": 2938,
      "APEMANTUS": 2939,
      "Ġsatisf": 2940,
      "COUNTESS": 2941,
      "NURSE": 2942,
      "SA": 2943,
      "cus": 2944,
      "Ġsn": 2945,
      "erset": 2946,
      "Ġthrow": 2947,
      "anch": 2948,
      "asion": 2949,
      "asons": 2950,
      "ĠAre": 2951,
      "Ġherself": 2952,
      "ĠMen": 2953,
      "thou": 2954,
      "INO": 2955,
      "iles": 2956,
      "rupt": 2957,
      "ĠPeace": 2958,
      "ĠFarewell": 2959,
      "Ġamong": 2960,
      "Ġjew": 2961,
      "Ġproceed": 2962,
      "osition": 2963,
      "Ġmarch": 2964,
      "EDGAR": 2965,
      "ĠVen": 2966,
      "ĠWilliam": 2967,
      "Ġbright": 2968,
      "Ġdangerous": 2969,
      "Ġdamned": 2970,
      "Ġcruel": 2971,
      "iv": 2972,
      "tle": 2973,
      "Ġfetch": 2974,
      "ĠSal": 2975,
      "ĠCITIZEN": 2976,
      "ĠTell": 2977,
      "SEBAST": 2978,
      "Ġperceive": 2979,
      "Ġgolden": 2980,
      "Ġquickly": 2981,
      "Ġhurt": 2982,
      "SEBASTIAN": 2983,
      "FEW": 2984,
      "PO": 2985,
      "ULET": 2986,
      "ald": 2987,
      "ib": 2988,
      "inion": 2989,
      "inius": 2990,
      "nds": 2991,
      "Ġdin": 2992,
      "chilles": 2993,
      "Ġdeliver": 2994,
      "Ġnob": 2995,
      "ility": 2996,
      "ilty": 2997,
      "ĠGentle": 2998,
      "LAFEW": 2999,
      "Ġwisdom": 3000,
      "Ġorder": 3001,
      "ĠRosal": 3002,
      "Away": 3003,
      "BIAN": 3004,
      "UGH": 3005,
      "mo": 3006,
      "ped": 3007,
      "where": 3008,
      "Ġwon": 3009,
      "Ġhorn": 3010,
      "Ġpure": 3011,
      "ingbroke": 3012,
      "Ġquoth": 3013,
      "Ġquiet": 3014,
      "Ġoffer": 3015,
      "itted": 3016,
      "Ġfoolish": 3017,
      "Stand": 3018,
      "BASS": 3019,
      "Ġbrief": 3020,
      "BURY": 3021,
      "bor": 3022,
      "do": 3023,
      "gr": 3024,
      "mon": 3025,
      "ror": 3026,
      "twere": 3027,
      "Ġsch": 3028,
      "Ġwood": 3029,
      "Ġdri": 3030,
      "Ġinv": 3031,
      "Ġmeasure": 3032,
      "chief": 3033,
      "ĠHonor": 3034,
      "ained": 3035,
      "Ġvi": 3036,
      "ONIUS": 3037,
      "LEBE": 3038,
      "Ġchast": 3039,
      "Ġtroth": 3040,
      "Ġcommend": 3041,
      "Ġprayers": 3042,
      "ĠAntonio": 3043,
      "Ġtreason": 3044,
      "ĠAthen": 3045,
      "Ġpract": 3046,
      "Unless": 3047,
      "Ġtemp": 3048,
      "BASTARD": 3049,
      "BROKE": 3050,
      "Ġsharp": 3051,
      "LEBEIAN": 3052,
      "HUM": 3053,
      "SAL": 3054,
      "VIUS": 3055,
      "par": 3056,
      "arge": 3057,
      "vey": 3058,
      "Ġstud": 3059,
      "ĠFord": 3060,
      "Ġsac": 3061,
      "Ġflatter": 3062,
      "thee": 3063,
      "Ġfearful": 3064,
      "Ġcalls": 3065,
      "Ġchur": 3066,
      "phin": 3067,
      "Whom": 3068,
      "Ġbitter": 3069,
      "ĠSomerset": 3070,
      "ĠRICHARD": 3071,
      "Ha": 3072,
      "RIUS": 3073,
      "ey": 3074,
      "good": 3075,
      "ich": 3076,
      "itors": 3077,
      "Ġfier": 3078,
      "Ġpiece": 3079,
      "anus": 3080,
      "stance": 3081,
      "Ġevil": 3082,
      "ĠHu": 3083,
      "ĠCle": 3084,
      "Ġangel": 3085,
      "icer": 3086,
      "Ġdisgu": 3087,
      "Ġjealous": 3088,
      "Ġenc": 3089,
      "Because": 3090,
      "CAP": 3091,
      "Ġsmo": 3092,
      "Ġfools": 3093,
      "ĠTroy": 3094,
      "Ġembrace": 3095,
      "ĠBolingbroke": 3096,
      "IP": 3097,
      "NES": 3098,
      "bus": 3099,
      "gy": 3100,
      "rat": 3101,
      "Ġtor": 3102,
      "ina": 3103,
      "Ġgates": 3104,
      "Ġele": 3105,
      "urst": 3106,
      "ores": 3107,
      "ĠCom": 3108,
      "ĠCam": 3109,
      "ĠBardolph": 3110,
      "ellow": 3111,
      "Ġneigh": 3112,
      "STER": 3113,
      "icul": 3114,
      "Ġrise": 3115,
      "Ġsaf": 3116,
      "Ġprov": 3117,
      "ĠLords": 3118,
      "THERS": 3119,
      "twas": 3120,
      "Ġsorry": 3121,
      "Bet": 3122,
      "Doth": 3123,
      "Into": 3124,
      "OS": 3125,
      "Ġdest": 3126,
      "Ġcir": 3127,
      "ided": 3128,
      "idow": 3129,
      "Ġlived": 3130,
      "ĠAway": 3131,
      "ease": 3132,
      "ĠMURDERER": 3133,
      "Aside": 3134,
      "Ġprepare": 3135,
      "ĠCassius": 3136,
      "ĠParis": 3137,
      "CAM": 3138,
      "ait": 3139,
      "afe": 3140,
      "Ġmed": 3141,
      "reed": 3142,
      "Ġfrown": 3143,
      "Ġlaid": 3144,
      "Ġhost": 3145,
      "Ġforsw": 3146,
      "Ġshape": 3147,
      "ANO": 3148,
      "ĠGree": 3149,
      "ORA": 3150,
      "hered": 3151,
      "ĠJew": 3152,
      "RIAN": 3153,
      "ETRIUS": 3154,
      "ĠVal": 3155,
      "Ġcontin": 3156,
      "Ġglory": 3157,
      "Ġfalls": 3158,
      "Ġsecret": 3159,
      "Ġgreen": 3160,
      "TRANIO": 3161,
      "Flourish": 3162,
      "alamon": 3163,
      "bast": 3164,
      "cal": 3165,
      "cite": 3166,
      "mn": 3167,
      "there": 3168,
      "which": 3169,
      "Ġver": 3170,
      "Ġsort": 3171,
      "Ġmasters": 3172,
      "isho": 3173,
      "Ġnaught": 3174,
      "Ġpal": 3175,
      "Ġinno": 3176,
      "Ġstop": 3177,
      "ĠHast": 3178,
      "icers": 3179,
      "Ġblame": 3180,
      "auphin": 3181,
      "Ġplague": 3182,
      "Ġalive": 3183,
      "Ġbreed": 3184,
      "Ġpurse": 3185,
      "Ġcounter": 3186,
      "LYS": 3187,
      "Ġlearn": 3188,
      "Br": 3189,
      "FRI": 3190,
      "POST": 3191,
      "mbl": 3192,
      "what": 3193,
      "Ġtaken": 3194,
      "Ġmut": 3195,
      "isp": 3196,
      "Ġcred": 3197,
      "Ġlend": 3198,
      "Ġpet": 3199,
      "Ġpains": 3200,
      "Ġmel": 3201,
      "entine": 3202,
      "ANNE": 3203,
      "eaven": 3204,
      "ENS": 3205,
      "Ġswift": 3206,
      "unning": 3207,
      "Ġfled": 3208,
      "Ġglass": 3209,
      "ITES": 3210,
      "Ġsummer": 3211,
      "HOSTESS": 3212,
      "THERSITES": 3213,
      "FRIAR": 3214,
      "rate": 3215,
      "Ġsland": 3216,
      "Ġwine": 3217,
      "esides": 3218,
      "Ġobey": 3219,
      "Ġequ": 3220,
      "ĠHUGH": 3221,
      "ĠCardinal": 3222,
      "iff": 3223,
      "Ġvow": 3224,
      "Ġours": 3225,
      "Ġamb": 3226,
      "Ġprot": 3227,
      "Ġthence": 3228,
      "Ġunf": 3229,
      "Ġhonesty": 3230,
      "Ġgreater": 3231,
      "orship": 3232,
      "REG": 3233,
      "REW": 3234,
      "DEMETRIUS": 3235,
      "Ġlearned": 3236,
      "Ġcheek": 3237,
      "Ġcheeks": 3238,
      "ADRIAN": 3239,
      "beth": 3240,
      "phe": 3241,
      "ued": 3242,
      "Ġap": 3243,
      "Ġgent": 3244,
      "Ġgross": 3245,
      "ales": 3246,
      "Ġstor": 3247,
      "Ġstood": 3248,
      "ords": 3249,
      "ĠSOLDIER": 3250,
      "ander": 3251,
      "Ġanon": 3252,
      "ards": 3253,
      "THUM": 3254,
      "ANDREW": 3255,
      "Ġbegins": 3256,
      "BERLAND": 3257,
      "within": 3258,
      "airs": 3259,
      "Ġpleased": 3260,
      "Ġforgot": 3261,
      "Ġwretched": 3262,
      "MALVOLIO": 3263,
      "POLONIUS": 3264,
      "THUMBERLAND": 3265,
      "),": 3266,
      "ding": 3267,
      "eat": 3268,
      "Ġsus": 3269,
      "Ġlist": 3270,
      "Ġpowers": 3271,
      "ators": 3272,
      "rice": 3273,
      "ĠSaint": 3274,
      "ĠPo": 3275,
      "host": 3276,
      "Ġproof": 3277,
      "ĠJove": 3278,
      "ILL": 3279,
      "Ġwits": 3280,
      "ĠAnne": 3281,
      "Ġcolor": 3282,
      "Ġshadow": 3283,
      "Ġstruck": 3284,
      "Ġignor": 3285,
      "bastian": 3286,
      "Ġinnoc": 3287,
      "MOR": 3288,
      "Pl": 3289,
      "cle": 3290,
      "go": 3291,
      "hum": 3292,
      "loy": 3293,
      "Ġtaste": 3294,
      "Ġwhi": 3295,
      "ising": 3296,
      "isbury": 3297,
      "ays": 3298,
      "Ġwealth": 3299,
      "Ġref": 3300,
      "ĠSh": 3301,
      "ĠSen": 3302,
      "ĠMadam": 3303,
      "ĠFORD": 3304,
      "Ġmanner": 3305,
      "Ġconcl": 3306,
      "SEY": 3307,
      "ENTIO": 3308,
      "Ġboys": 3309,
      "ĠQu": 3310,
      "incess": 3311,
      "Ġjudge": 3312,
      "ĠSERVINGMAN": 3313,
      "Ġsuccess": 3314,
      "Cl": 3315,
      "EX": 3316,
      "King": 3317,
      "ex": 3318,
      "gg": 3319,
      "Ġtear": 3320,
      "Ġmatch": 3321,
      "erc": 3322,
      "rius": 3323,
      "ĠMont": 3324,
      "Ġproper": 3325,
      "Ġbrain": 3326,
      "Ġobs": 3327,
      "Ġinstant": 3328,
      "Ġseveral": 3329,
      "COST": 3330,
      "Des": 3331,
      "ker": 3332,
      "mia": 3333,
      "take": 3334,
      "Ġtou": 3335,
      "Ġwounds": 3336,
      "Ġbrow": 3337,
      "edy": 3338,
      "omorrow": 3339,
      "Ġintend": 3340,
      "Ġbeha": 3341,
      "Ġbecause": 3342,
      "iron": 3343,
      "ĠMoor": 3344,
      "ĠLA": 3345,
      "iful": 3346,
      "Ġfaire": 3347,
      "Ġvan": 3348,
      "ĠDes": 3349,
      "Ġgoodly": 3350,
      "Ġfolly": 3351,
      "ILER": 3352,
      "Ġrain": 3353,
      "uthor": 3354,
      "Ġdouble": 3355,
      "Ġmonth": 3356,
      "Ġdefend": 3357,
      "Ġprisoner": 3358,
      "HERM": 3359,
      "ĠTitus": 3360,
      "Ġscarce": 3361,
      "ference": 3362,
      "ĠSENATOR": 3363,
      "LARENCE": 3364,
      "Ġdinner": 3365,
      "COSTARD": 3366,
      "BARDOLPH": 3367,
      "NON": 3368,
      "shall": 3369,
      "Ġed": 3370,
      "Ġtry": 3371,
      "Ġsong": 3372,
      "Ġsix": 3373,
      "Ġwert": 3374,
      "itiz": 3375,
      "onat": 3376,
      "Ġloud": 3377,
      "Ġthro": 3378,
      "atched": 3379,
      "Ġeld": 3380,
      "irgin": 3381,
      "Ġur": 3382,
      "Ġweary": 3383,
      "Ġdeare": 3384,
      "Ġdemand": 3385,
      "ĠAchilles": 3386,
      "ĠBass": 3387,
      "ĠGu": 3388,
      "Ġarg": 3389,
      "Ġwearing": 3390,
      "Ġwanton": 3391,
      "Ġrequest": 3392,
      "gi": 3393,
      "jax": 3394,
      "ndeed": 3395,
      "Ġbare": 3396,
      "Ġbroke": 3397,
      "Ġcunning": 3398,
      "Ġow": 3399,
      "Ġnurse": 3400,
      "Ġthither": 3401,
      "Ġheld": 3402,
      "Ġinj": 3403,
      "ĠPLEBEIAN": 3404,
      "ifford": 3405,
      "fered": 3406,
      "hys": 3407,
      "Ġrough": 3408,
      "atherine": 3409,
      "Ġflowers": 3410,
      "ways": 3411,
      "ILLO": 3412,
      "Ġprecious": 3413,
      "Ġfellows": 3414,
      "Ġmoved": 3415,
      "comp": 3416,
      "ize": 3417,
      "Ġcondition": 3418,
      "Ġjoin": 3419,
      "umberland": 3420,
      "NORTHUMBERLAND": 3421,
      "ĠSebastian": 3422,
      "Ġmotion": 3423,
      "BRA": 3424,
      "Call": 3425,
      "CYM": 3426,
      "UCH": 3427,
      "YSS": 3428,
      "ta": 3429,
      "Ġmid": 3430,
      "Ġhun": 3431,
      "Ġheat": 3432,
      "ety": 3433,
      "usion": 3434,
      "amor": 3435,
      "ĠMAC": 3436,
      "ĠPoly": 3437,
      "Ġspring": 3438,
      "ESCAL": 3439,
      "icious": 3440,
      "ivered": 3441,
      "ission": 3442,
      "Ġholds": 3443,
      "ULYSS": 3444,
      "Ġpriest": 3445,
      "BELINE": 3446,
      "Ġsilver": 3447,
      "SERVANT": 3448,
      "Ġvictor": 3449,
      "CYMBELINE": 3450,
      "ESCALUS": 3451,
      "ULYSSES": 3452,
      "CK": 3453,
      "CLI": 3454,
      "De": 3455,
      "MUN": 3456,
      "TIUS": 3457,
      "Under": 3458,
      "YLO": 3459,
      "bear": 3460,
      "fl": 3461,
      "wise": 3462,
      "Ġes": 3463,
      "Ġaught": 3464,
      "Ġmour": 3465,
      "Ġmurde": 3466,
      "Ġwond": 3467,
      "Ġbones": 3468,
      "Ġfi": 3469,
      "Ġfru": 3470,
      "Ġcatch": 3471,
      "lease": 3472,
      "Ġformer": 3473,
      "ĠOn": 3474,
      "emn": 3475,
      "OLSEY": 3476,
      "Ġdisg": 3477,
      "Ġhadst": 3478,
      "Ġhearing": 3479,
      "DUFF": 3480,
      "EDMUN": 3481,
      "SHYLO": 3482,
      "ĠHero": 3483,
      "otten": 3484,
      "JAILER": 3485,
      "Ġsteel": 3486,
      "Ġvisit": 3487,
      "Ġclear": 3488,
      "Ġwalls": 3489,
      "Ġtrumpet": 3490,
      "ADRIANA": 3491,
      "hysic": 3492,
      "EDMUND": 3493,
      "SHYLOCK": 3494,
      "AST": 3495,
      "TEN": 3496,
      "WOLSEY": 3497,
      "vail": 3498,
      "Ġmethinks": 3499,
      "Ġfame": 3500,
      "Ġdwell": 3501,
      "Ġlarge": 3502,
      "Ġthreat": 3503,
      "Ġpun": 3504,
      "Ġmere": 3505,
      "tern": 3506,
      "ĠDauphin": 3507,
      "Without": 3508,
      "Ġfears": 3509,
      "Ġcompl": 3510,
      "Ġways": 3511,
      "Ġguilty": 3512,
      "MARIA": 3513,
      "Ġprincely": 3514,
      "chance": 3515,
      "Ġborne": 3516,
      "BOYET": 3517,
      "ĠMacbeth": 3518,
      "Ġexcuse": 3519,
      "Ab": 3520,
      "gle": 3521,
      "she": 3522,
      "zen": 3523,
      "ĠQU": 3524,
      "Ġay": 3525,
      "Ġship": 3526,
      "Ġwicked": 3527,
      "Ġce": 3528,
      "Ġsto": 3529,
      "Ġstars": 3530,
      "thumberland": 3531,
      "ĠPalamon": 3532,
      "ĠOf": 3533,
      "Ġconce": 3534,
      "CHIMO": 3535,
      "IACHIMO": 3536,
      "Ġfoes": 3537,
      "Ġrude": 3538,
      "Ġtrib": 3539,
      "Ġmonst": 3540,
      "ORTENS": 3541,
      "Ġchoice": 3542,
      "Ġprivate": 3543,
      "Ġliberty": 3544,
      "ancholy": 3545,
      "HUMUS": 3546,
      "POSTHUMUS": 3547,
      "ĠPolydor": 3548,
      "Am": 3549,
      "CLO": 3550,
      "Hold": 3551,
      "TO": 3552,
      "Ġbastard": 3553,
      "Ġdue": 3554,
      "Ġdance": 3555,
      "Ġhunt": 3556,
      "ĠIago": 3557,
      "Ġins": 3558,
      "utation": 3559,
      "ĠLy": 3560,
      "romio": 3561,
      "Ġneck": 3562,
      "ĠEp": 3563,
      "ondon": 3564,
      "Ġbeggar": 3565,
      "Ġleg": 3566,
      "Ġcourtes": 3567,
      "Ġopinion": 3568,
      "Ġdrop": 3569,
      "CLOTEN": 3570,
      "CR": 3571,
      "HORTENS": 3572,
      "Lest": 3573,
      "folk": 3574,
      "off": 3575,
      "pen": 3576,
      "pro": 3577,
      "Ġfig": 3578,
      "etrius": 3579,
      "Ġstory": 3580,
      "Ġvent": 3581,
      "emetrius": 3582,
      "ical": 3583,
      "Ġenjoy": 3584,
      "Ġquite": 3585,
      "Ġgreatness": 3586,
      "perate": 3587,
      "ICKLY": 3588,
      "Ġmaiden": 3589,
      "Ġrememb": 3590,
      "Ġgrows": 3591,
      "Ġgreet": 3592,
      "Two": 3593,
      "Ġskill": 3594,
      "Ġdrunk": 3595,
      "Ġterms": 3596,
      "Ġkneel": 3597,
      "Ġcreature": 3598,
      "Ġdrawn": 3599,
      "Ġforbid": 3600,
      "Ġbleed": 3601,
      "ĠSalisbury": 3602,
      "ishop": 3603,
      "ĠQUICKLY": 3604,
      "GA": 3605,
      "Hear": 3606,
      "Those": 3607,
      "VIR": 3608,
      "some": 3609,
      "orge": 3610,
      "Ġdry": 3611,
      "Ġowe": 3612,
      "ayed": 3613,
      "idius": 3614,
      "Ġreceive": 3615,
      "ĠWorship": 3616,
      "Ġkins": 3617,
      "ĠSignior": 3618,
      "ĠCon": 3619,
      "ĠMor": 3620,
      "ĠMAN": 3621,
      "Ġlod": 3622,
      "Ġexpect": 3623,
      "STONE": 3624,
      "INGBROKE": 3625,
      "ILLES": 3626,
      "Ġleaves": 3627,
      "iana": 3628,
      "enses": 3629,
      "Ġtongues": 3630,
      "Ġswords": 3631,
      "Ġobed": 3632,
      "Twas": 3633,
      "Ġwait": 3634,
      "Ġtyrant": 3635,
      "ancaster": 3636,
      "Ġancient": 3637,
      "UCHSTONE": 3638,
      "TOUCHSTONE": 3639,
      "IEL": 3640,
      "Mine": 3641,
      "Never": 3642,
      "Per": 3643,
      "Unto": 3644,
      "ek": 3645,
      "mit": 3646,
      "Ġauthor": 3647,
      "hand": 3648,
      "Ġbott": 3649,
      "Ġcorn": 3650,
      "enet": 3651,
      "Ġbend": 3652,
      "ident": 3653,
      "idge": 3654,
      "Ġyourselves": 3655,
      "Ġstart": 3656,
      "Ġreceived": 3657,
      "ament": 3658,
      "ĠAp": 3659,
      "ĠPy": 3660,
      "ĠFaith": 3661,
      "Ġnecess": 3662,
      "Ġmanners": 3663,
      "Ġamaz": 3664,
      "Ġblows": 3665,
      "Ġdism": 3666,
      "ianca": 3667,
      "Ġwrath": 3668,
      "Ġclaim": 3669,
      "Ġimag": 3670,
      "Ġcompan": 3671,
      "awd": 3672,
      "ISH": 3673,
      "Ġsmell": 3674,
      "ĠClifford": 3675,
      "Ġwrongs": 3676,
      "Ġhumble": 3677,
      "Ġwinter": 3678,
      "Ġtrouble": 3679,
      "ACHILLES": 3680,
      "ĠRosalind": 3681,
      "BASSANIO": 3682,
      "ĠValentine": 3683,
      "Ere": 3684,
      "awn": 3685,
      "bra": 3686,
      "der": 3687,
      "lvia": 3688,
      "than": 3689,
      "wear": 3690,
      "ining": 3691,
      "Ġmajesty": 3692,
      "llo": 3693,
      "Ġfain": 3694,
      "Ġfond": 3695,
      "Ġlest": 3696,
      "aring": 3697,
      "Ġhor": 3698,
      "Ġpol": 3699,
      "Ġgir": 3700,
      "Ġgain": 3701,
      "Ġmem": 3702,
      "Ġmeat": 3703,
      "ĠSee": 3704,
      "ĠAg": 3705,
      "ĠAjax": 3706,
      "ĠBl": 3707,
      "ĠLondon": 3708,
      "ĠOff": 3709,
      "Ġconj": 3710,
      "ppy": 3711,
      "ared": 3712,
      "Ġused": 3713,
      "INGS": 3714,
      "ishment": 3715,
      "istol": 3716,
      "Within": 3717,
      "Ġrob": 3718,
      "Ġfoe": 3719,
      "lip": 3720,
      "Ġtrans": 3721,
      "Ġrare": 3722,
      "acle": 3723,
      "form": 3724,
      "ĠCaius": 3725,
      "Ġadvantage": 3726,
      "enedick": 3727,
      "BOLINGBROKE": 3728,
      "ĠCoriol": 3729,
      "Ġsafety": 3730,
      "CAMILLO": 3731,
      "REGAN": 3732,
      "ASTINGS": 3733,
      "?\"": 3734,
      "HE": 3735,
      "PTI": 3736,
      "SON": 3737,
      "aces": 3738,
      "dem": 3739,
      "mund": 3740,
      "Ġaid": 3741,
      "ination": 3742,
      "Ġwidow": 3743,
      "Ġbas": 3744,
      "Ġdu": 3745,
      "Ġstuff": 3746,
      "ĠMost": 3747,
      "Ġspent": 3748,
      "Ġspend": 3749,
      "ĠOne": 3750,
      "Ġgovern": 3751,
      "ALBOT": 3752,
      "Ġshouldst": 3753,
      "Ġenfor": 3754,
      "Ġproclaim": 3755,
      "orses": 3756,
      "Ġbrothers": 3757,
      "Ġcontr": 3758,
      "Ġsmile": 3759,
      "ĠArcite": 3760,
      "ROSALINE": 3761,
      "Ġpersu": 3762,
      "Ġpromised": 3763,
      "ĠEmperor": 3764,
      "ĠEmilia": 3765,
      "ronic": 3766,
      "Ġdirect": 3767,
      "ĠShallow": 3768,
      "Ġcourage": 3769,
      "Ġsolemn": 3770,
      "CLIFF": 3771,
      "ISHOP": 3772,
      "After": 3773,
      "Both": 3774,
      "Made": 3775,
      "dain": 3776,
      "ouds": 3777,
      "Ġbount": 3778,
      "Ġphysic": 3779,
      "ourse": 3780,
      "amp": 3781,
      "Ġlover": 3782,
      "END": 3783,
      "ĠLancaster": 3784,
      "Ġfail": 3785,
      "ĠFRI": 3786,
      "elt": 3787,
      "elieve": 3788,
      "Ġrans": 3789,
      "Ġrogue": 3790,
      "Ġlegs": 3791,
      "Ġendure": 3792,
      "GHTER": 3793,
      "JAQU": 3794,
      "Ġidle": 3795,
      "ĠFRIEND": 3796,
      "BISHOP": 3797,
      "born": 3798,
      "fer": 3799,
      "Ġthief": 3800,
      "Ġheed": 3801,
      "Ġrevol": 3802,
      "ĠWhich": 3803,
      "road": 3804,
      "Ġdeg": 3805,
      "Ġdeal": 3806,
      "INS": 3807,
      "ĠKatherine": 3808,
      "Ġmayst": 3809,
      "Ġsail": 3810,
      "Ġwhence": 3811,
      "Ġarmed": 3812,
      "Ġleis": 3813,
      "Ġkeeps": 3814,
      "Ġfollowed": 3815,
      "Ġthrone": 3816,
      "Ġkisses": 3817,
      "Ġhanged": 3818,
      "CORN": 3819,
      "ĠJuliet": 3820,
      "Ġmelancholy": 3821,
      "itizens": 3822,
      "HORTENSIO": 3823,
      "HASTINGS": 3824,
      "ITH": 3825,
      "IGO": 3826,
      "Pray": 3827,
      "SO": 3828,
      "UELL": 3829,
      "WO": 3830,
      "While": 3831,
      "Yes": 3832,
      "Yea": 3833,
      "fall": 3834,
      "gen": 3835,
      "was": 3836,
      "Ġwench": 3837,
      "Ġburd": 3838,
      "Ġfee": 3839,
      "Ġfaint": 3840,
      "Ġfury": 3841,
      "Ġcust": 3842,
      "Ġthird": 3843,
      "omas": 3844,
      "ĠPet": 3845,
      "Ġvirgin": 3846,
      "ĠFare": 3847,
      "Think": 3848,
      "Ġsirrah": 3849,
      "ĠRo": 3850,
      "Ġuns": 3851,
      "Ġmadness": 3852,
      "Ġhonors": 3853,
      "Ġflower": 3854,
      "ressid": 3855,
      "Ġtwice": 3856,
      "ATIAN": 3857,
      "ĠYea": 3858,
      "Ġperfect": 3859,
      "ctions": 3860,
      "ocks": 3861,
      "Ġbearing": 3862,
      "BAPTI": 3863,
      "ixed": 3864,
      "should": 3865,
      "ĠPericles": 3866,
      "ĠCaptain": 3867,
      "Ġlament": 3868,
      "DAUGHTER": 3869,
      "ĠProteus": 3870,
      "Ġemploy": 3871,
      "Ġjewel": 3872,
      "Ġschool": 3873,
      "Ġcirc": 3874,
      "ĠHastings": 3875,
      "ĠMorgan": 3876,
      "UELLEN": 3877,
      "ATIANO": 3878,
      "BAPTISTA": 3879,
      "Bl": 3880,
      "COM": 3881,
      "First": 3882,
      "GE": 3883,
      "ION": 3884,
      "Serv": 3885,
      "TOL": 3886,
      "YCUS": 3887,
      "app": 3888,
      "ivil": 3889,
      "rough": 3890,
      "wal": 3891,
      "Ġtail": 3892,
      "Ġsen": 3893,
      "oral": 3894,
      "orious": 3895,
      "Ġdust": 3896,
      "Ġcost": 3897,
      "enant": 3898,
      "Ġtop": 3899,
      "Ġheels": 3900,
      "Ġgift": 3901,
      "ating": 3902,
      "iment": 3903,
      "Ġmeant": 3904,
      "Ġweap": 3905,
      "amed": 3906,
      "ĠCad": 3907,
      "Ġnose": 3908,
      "Ġknee": 3909,
      "Ġshepherd": 3910,
      "Ġknowledge": 3911,
      "SET": 3912,
      "Ġheavenly": 3913,
      "Ġappare": 3914,
      "ISBURY": 3915,
      "Ġguilt": 3916,
      "Ġimport": 3917,
      "AUTOL": 3918,
      "Alarum": 3919,
      "ĠNorfolk": 3920,
      "FLUELLEN": 3921,
      "ĠCharles": 3922,
      "Ġsimple": 3923,
      "ĠChristian": 3924,
      "Ġoccasion": 3925,
      "Ġleisure": 3926,
      "AUTOLYCUS": 3927,
      "Dis": 3928,
      "Great": 3929,
      "IMON": 3930,
      "Ne": 3931,
      "NIA": 3932,
      "Qu": 3933,
      "WER": 3934,
      "aul": 3935,
      "balt": 3936,
      "love": 3937,
      "oot": 3938,
      "ted": 3939,
      "yond": 3940,
      "Ġsits": 3941,
      "Ġben": 3942,
      "Ġfood": 3943,
      "Ġcried": 3944,
      "Ġthunder": 3945,
      "Ġport": 3946,
      "omb": 3947,
      "Ġgaz": 3948,
      "atra": 3949,
      "Ġones": 3950,
      "ENES": 3951,
      "Ġanger": 3952,
      "eless": 3953,
      "orthi": 3954,
      "Ġusur": 3955,
      "ump": 3956,
      "Ġrid": 3957,
      "Ġbetray": 3958,
      "Ġclo": 3959,
      "Ġslow": 3960,
      "Ġfollows": 3961,
      "Ġtrain": 3962,
      "ounter": 3963,
      "ĠBrook": 3964,
      "Ġmonster": 3965,
      "avin": 3966,
      "opatra": 3967,
      "Ġforever": 3968,
      "rers": 3969,
      "ĠPercy": 3970,
      "GRATIANO": 3971,
      "Ġfinger": 3972,
      "Ġpubl": 3973,
      "Could": 3974,
      "HOL": 3975,
      "Poor": 3976,
      "VOST": 3977,
      "ape": 3978,
      "eous": 3979,
      "from": 3980,
      "father": 3981,
      "kin": 3982,
      "look": 3983,
      "reads": 3984,
      "Ġfie": 3985,
      "Ġfought": 3986,
      "Ġcure": 3987,
      "Ġla": 3988,
      "ane": 3989,
      "omp": 3990,
      "Ġease": 3991,
      "ĠSON": 3992,
      "Ġdoors": 3993,
      "ĠKent": 3994,
      "Ġflood": 3995,
      "ATCH": 3996,
      "thello": 3997,
      "Ġclouds": 3998,
      "Ġpurp": 3999,
      "Ġrepent": 4000,
      "BERT": 4001,
      "oft": 4002,
      "Ġguest": 4003,
      "Ġtreasure": 4004,
      "MARCUS": 4005,
      "Ġgriefs": 4006,
      "iety": 4007,
      "PROVOST": 4008,
      "Ġaffairs": 4009,
      "Ġcorrupt": 4010,
      "Ġdreadful": 4011,
      "Ġmalice": 4012,
      "POINS": 4013,
      "COMINIUS": 4014,
      "CLARENCE": 4015,
      "Love": 4016,
      "MED": 4017,
      "act": 4018,
      "after": 4019,
      "fri": 4020,
      "mble": 4021,
      "mond": 4022,
      "ys": 4023,
      "Ġfew": 4024,
      "Ġdign": 4025,
      "Ġduc": 4026,
      "Ġcre": 4027,
      "Ġcries": 4028,
      "Ġbell": 4029,
      "Ġev": 4030,
      "Ġmend": 4031,
      "ased": 4032,
      "rib": 4033,
      "Ġreign": 4034,
      "Ġreasons": 4035,
      "Ġdoom": 4036,
      "ĠCall": 4037,
      "ĠMars": 4038,
      "ERIUS": 4039,
      "Ġlovers": 4040,
      "Ġknife": 4041,
      "ĠEgy": 4042,
      "Ġchain": 4043,
      "Ġdesires": 4044,
      "Ġparticul": 4045,
      "CADE": 4046,
      "TICE": 4047,
      "Ġputs": 4048,
      "Ġtrial": 4049,
      "MARINA": 4050,
      "Ġmiser": 4051,
      "Ġsounds": 4052,
      "ipho": 4053,
      "EPHANO": 4054,
      "Ġsubjects": 4055,
      "umphrey": 4056,
      "ointed": 4057,
      "ĠSylvia": 4058,
      "Ġexecution": 4059,
      "Ġprotest": 4060,
      "Ġargument": 4061,
      "Ġfruit": 4062,
      "ĠCadwal": 4063,
      "MEDES": 4064,
      "ĠEgypt": 4065,
      "Ca": 4066,
      "Luc": 4067,
      "MIO": 4068,
      "MIAN": 4069,
      "iomed": 4070,
      "lo": 4071,
      "say": 4072,
      "Ġtree": 4073,
      "Ġtune": 4074,
      "Ġwra": 4075,
      "erved": 4076,
      "Ġfle": 4077,
      "Ġpil": 4078,
      "Ġpict": 4079,
      "Ġtomb": 4080,
      "Ġincl": 4081,
      "utenant": 4082,
      "Ġstone": 4083,
      "Ġstol": 4084,
      "ĠWATCH": 4085,
      "ĠSweet": 4086,
      "Ġdoing": 4087,
      "ĠCy": 4088,
      "ĠCressid": 4089,
      "Ġloath": 4090,
      "ĠPri": 4091,
      "ĠPost": 4092,
      "ified": 4093,
      "Ġspite": 4094,
      "Ġvows": 4095,
      "ORS": 4096,
      "STEPHANO": 4097,
      "ĠDromio": 4098,
      "elve": 4099,
      "Ġunless": 4100,
      "ĠJack": 4101,
      "agger": 4102,
      "ustice": 4103,
      "Ġwherefore": 4104,
      "RUMIO": 4105,
      "Ġtravel": 4106,
      "ontent": 4107,
      "MONT": 4108,
      "Attend": 4109,
      "Ġoaths": 4110,
      "BENVOLIO": 4111,
      "Ġprofess": 4112,
      "Ġthrice": 4113,
      "ĠLeonat": 4114,
      "Ġbroken": 4115,
      "Ġutter": 4116,
      "Ġeasy": 4117,
      "ĠDesdem": 4118,
      "Ġfiend": 4119,
      "Ġmonstrous": 4120,
      "Ġcourtesy": 4121,
      "avinia": 4122,
      "Ad": 4123,
      "CUT": 4124,
      "GRUMIO": 4125,
      "OPH": 4126,
      "Tru": 4127,
      "cil": 4128,
      "draw": 4129,
      "Ġdif": 4130,
      "Ġline": 4131,
      "Ġpin": 4132,
      "Ġpaid": 4133,
      "atrice": 4134,
      "Ġweight": 4135,
      "ĠTower": 4136,
      "ERTES": 4137,
      "USTICE": 4138,
      "Ġseat": 4139,
      "Ġseven": 4140,
      "que": 4141,
      "Ġgoodness": 4142,
      "ALD": 4143,
      "ortens": 4144,
      "IAM": 4145,
      "eeth": 4146,
      "Ġchall": 4147,
      "Ġgrand": 4148,
      "LAERTES": 4149,
      "lando": 4150,
      "overed": 4151,
      "wered": 4152,
      "sander": 4153,
      "ĠBrit": 4154,
      "Ġlawful": 4155,
      "Ġweeping": 4156,
      "eterm": 4157,
      "DIOMEDES": 4158,
      "Ġminister": 4159,
      "MERCUT": 4160,
      "volio": 4161,
      "CHARMIAN": 4162,
      "Ġlangu": 4163,
      "ĠAthens": 4164,
      "SALISBURY": 4165,
      "Ġchurch": 4166,
      "ichmond": 4167,
      "Ġcircum": 4168,
      "MERCUTIO": 4169,
      "FOLK": 4170,
      "IE": 4171,
      "house": 4172,
      "jo": 4173,
      "oke": 4174,
      "then": 4175,
      "ws": 4176,
      "Ġmild": 4177,
      "Ġwide": 4178,
      "Ġwings": 4179,
      "Ġwag": 4180,
      "Ġbig": 4181,
      "enance": 4182,
      "Ġniece": 4183,
      "Ġthick": 4184,
      "Ġhorses": 4185,
      "omach": 4186,
      "Ġstage": 4187,
      "Ġstab": 4188,
      "Ġdebt": 4189,
      "ĠMark": 4190,
      "ĠBianca": 4191,
      "ilius": 4192,
      "Ġvenge": 4193,
      "Ġshore": 4194,
      "Ġconc": 4195,
      "Ġthinks": 4196,
      "PHIN": 4197,
      "acher": 4198,
      "Ġwarlike": 4199,
      "Ġremedy": 4200,
      "Wherein": 4201,
      "Ġbelow": 4202,
      "Ġhappiness": 4203,
      "Ġdelivered": 4204,
      "ĠNorthumberland": 4205,
      "altha": 4206,
      "Ġdrum": 4207,
      "Ġkneels": 4208,
      "ĠServant": 4209,
      "humus": 4210,
      "ĠEphes": 4211,
      "TOM": 4212,
      "af": 4213,
      "cing": 4214,
      "cul": 4215,
      "lus": 4216,
      "law": 4217,
      "port": 4218,
      "val": 4219,
      "Ġborrow": 4220,
      "Ġfeet": 4221,
      "Ġfancy": 4222,
      "Ġled": 4223,
      "Ġhit": 4224,
      "Ġpot": 4225,
      "Ġgate": 4226,
      "ĠSome": 4227,
      "ams": 4228,
      "ĠCAP": 4229,
      "ĠTime": 4230,
      "ĠBenedick": 4231,
      "ĠPis": 4232,
      "ĠPistol": 4233,
      "elia": 4234,
      "ĠKnow": 4235,
      "RODER": 4236,
      "Ġoutward": 4237,
      "Ġabroad": 4238,
      "Ġhopes": 4239,
      "Ġwhereof": 4240,
      "ANDER": 4241,
      "ĠVol": 4242,
      "IDERIUS": 4243,
      "LUCENTIO": 4244,
      "Ġbids": 4245,
      "ouchs": 4246,
      "Ġwoes": 4247,
      "chant": 4248,
      "Ġsilence": 4249,
      "upid": 4250,
      "VOLUM": 4251,
      "Ġknees": 4252,
      "Ġforgive": 4253,
      "Ġdrops": 4254,
      "Ġdeserve": 4255,
      "Ġthrive": 4256,
      "Ġapproach": 4257,
      "ramus": 4258,
      "DAUPHIN": 4259,
      "Ġsighs": 4260,
      "Ġsometimes": 4261,
      "Ġpractice": 4262,
      "ĠCleopatra": 4263,
      "Ġremembrance": 4264,
      "Ġmemory": 4265,
      "Ġcustom": 4266,
      "ortensio": 4267,
      "RODERIGO": 4268,
      "Besides": 4269,
      "IG": 4270,
      "Welcome": 4271,
      "sing": 4272,
      "vors": 4273,
      "wit": 4274,
      "Ġwat": 4275,
      "Ġwol": 4276,
      "Ġwhilst": 4277,
      "Ġbuck": 4278,
      "itude": 4279,
      "Ġlen": 4280,
      "arus": 4281,
      "Ġstones": 4282,
      "ĠWest": 4283,
      "ĠHark": 4284,
      "ĠMal": 4285,
      "ĠThan": 4286,
      "ARIUS": 4287,
      "Ġfaces": 4288,
      "ctav": 4289,
      "ĠDemetrius": 4290,
      "ĠNever": 4291,
      "Ġsheep": 4292,
      "THUR": 4293,
      "Ġbride": 4294,
      "ĠThus": 4295,
      "ĠThomas": 4296,
      "Ġalways": 4297,
      "ĠPrithee": 4298,
      "Ġarmor": 4299,
      "formed": 4300,
      "Ġminds": 4301,
      "ULINA": 4302,
      "ĠStand": 4303,
      "BELARIUS": 4304,
      "MACDUFF": 4305,
      "Ġpossible": 4306,
      "Ġwretch": 4307,
      "Ġempt": 4308,
      "PAULINA": 4309,
      "urious": 4310,
      "ĠDeath": 4311,
      "Ġmirth": 4312,
      "GUIDERIUS": 4313,
      "LENDER": 4314,
      "ĠMACBETH": 4315,
      "ORSINO": 4316,
      "LVIA": 4317,
      "Methinks": 4318,
      "PIS": 4319,
      "SY": 4320,
      "TALBOT": 4321,
      "WD": 4322,
      "gentle": 4323,
      "iest": 4324,
      "mend": 4325,
      "ping": 4326,
      "pur": 4327,
      "ras": 4328,
      "tered": 4329,
      "ua": 4330,
      "upon": 4331,
      "Ġable": 4332,
      "Ġmessenger": 4333,
      "Ġfart": 4334,
      "Ġdet": 4335,
      "Ġthrust": 4336,
      "Ġyea": 4337,
      "Ġgown": 4338,
      "atience": 4339,
      "chio": 4340,
      "idings": 4341,
      "ĠHost": 4342,
      "Ġasleep": 4343,
      "ĠCA": 4344,
      "Ġloyal": 4345,
      "ĠBoy": 4346,
      "ĠBaltha": 4347,
      "ruchio": 4348,
      "ĠGe": 4349,
      "ĠFirst": 4350,
      "ĠNothing": 4351,
      "ĠNature": 4352,
      "pping": 4353,
      "ody": 4354,
      "Ġunha": 4355,
      "Ġeng": 4356,
      "ARDIN": 4357,
      "Ġfright": 4358,
      "oses": 4359,
      "Ġtwelve": 4360,
      "Ġhollow": 4361,
      "Ġdesperate": 4362,
      "ETER": 4363,
      "EMIO": 4364,
      "Ġearn": 4365,
      "Ġcoz": 4366,
      "Ġnatural": 4367,
      "Ġtriumph": 4368,
      "BAWD": 4369,
      "ĠIsab": 4370,
      "Ġbreathe": 4371,
      "Ġdiscourse": 4372,
      "Ġtempt": 4373,
      "Ġawake": 4374,
      "Ġsooner": 4375,
      "asket": 4376,
      "NORFOLK": 4377,
      "Ġrascal": 4378,
      "BOTTOM": 4379,
      "Ġquality": 4380,
      "Ġforsworn": 4381,
      "Ġequal": 4382,
      "Ġdearest": 4383,
      "Ġransom": 4384,
      "OPHELIA": 4385,
      "PISANIO": 4386,
      "SYLVIA": 4387,
      "AAR": 4388,
      "GENTLEMAN": 4389,
      "Know": 4390,
      "POLI": 4391,
      "SLENDER": 4392,
      "XENES": 4393,
      "Ġteeth": 4394,
      "hel": 4395,
      "Ġsal": 4396,
      "iny": 4397,
      "Ġwont": 4398,
      "Ġwomb": 4399,
      "ester": 4400,
      "Ġhap": 4401,
      "ash": 4402,
      "ourt": 4403,
      "ĠHear": 4404,
      "ĠHumphrey": 4405,
      "thur": 4406,
      "iling": 4407,
      "ĠPho": 4408,
      "ĠFrom": 4409,
      "ĠFair": 4410,
      "Ġcomb": 4411,
      "ĠEven": 4412,
      "ĠJUSTICE": 4413,
      "Ġflight": 4414,
      "Ġflies": 4415,
      "Ġroot": 4416,
      "Ġplead": 4417,
      "Ġaffect": 4418,
      "Ġcompass": 4419,
      "ailer": 4420,
      "Ġcrowns": 4421,
      "Ġburied": 4422,
      "Ġdraws": 4423,
      "Ġsingle": 4424,
      "Ġdispatch": 4425,
      "Ġextrem": 4426,
      "Ġrank": 4427,
      "Ġperform": 4428,
      "GREMIO": 4429,
      "Ġcounterfeit": 4430,
      "ĠMontague": 4431,
      "ipholus": 4432,
      "VOLUMNIA": 4433,
      "AARON": 4434,
      "POLIXENES": 4435,
      "LU": 4436,
      "Le": 4437,
      "Rem": 4438,
      "[(": 4439,
      "hor": 4440,
      "know": 4441,
      "known": 4442,
      "vest": 4443,
      "vish": 4444,
      "Ġtable": 4445,
      "Ġaim": 4446,
      "Ġaud": 4447,
      "Ġmil": 4448,
      "Ġmaking": 4449,
      "Ġwives": 4450,
      "Ġbark": 4451,
      "iter": 4452,
      "onius": 4453,
      "Ġcher": 4454,
      "Ġod": 4455,
      "Ġnumber": 4456,
      "cend": 4457,
      "Ġstomach": 4458,
      "ĠSat": 4459,
      "Ġdeb": 4460,
      "Ġdeceived": 4461,
      "eave": 4462,
      "Ġsees": 4463,
      "ĠPol": 4464,
      "ĠOut": 4465,
      "ĠOthello": 4466,
      "Ġswell": 4467,
      "Ġdisple": 4468,
      "Ġenvy": 4469,
      "Ġprod": 4470,
      "Ġwherein": 4471,
      "Ġdesc": 4472,
      "they": 4473,
      "onsie": 4474,
      "Ġshowed": 4475,
      "Ġdeadly": 4476,
      "Ġchief": 4477,
      "Ġkindness": 4478,
      "IDIUS": 4479,
      "Ġseeming": 4480,
      "Ġaccount": 4481,
      "uteous": 4482,
      "ĠMarcus": 4483,
      "Ġobject": 4484,
      "ranio": 4485,
      "Ġboot": 4486,
      "ĠEdmund": 4487,
      "Ġdenied": 4488,
      "Ġintent": 4489,
      "Ġexpress": 4490,
      "Ġgallant": 4491,
      "BANY": 4492,
      "Ġreverend": 4493,
      "Ġtempest": 4494,
      "Ġneighbor": 4495,
      "ĠLAW": 4496,
      "HECTOR": 4497,
      "JAQUES": 4498,
      "ĠPosthumus": 4499,
      "ĠDesdemona": 4500,
      "IEF": 4501,
      "ĠEphesus": 4502,
      "LUCE": 4503,
      "BAL": 4504,
      "FA": 4505,
      "FER": 4506,
      "OFER": 4507,
      "Put": 4508,
      "RENCE": 4509,
      "Sha": 4510,
      "Som": 4511,
      "WALL": 4512,
      "ault": 4513,
      "co": 4514,
      "cis": 4515,
      "iar": 4516,
      "swered": 4517,
      "wixt": 4518,
      "Ġsau": 4519,
      "rent": 4520,
      "ision": 4521,
      "Ġbawd": 4522,
      "Ġdig": 4523,
      "Ġdeterm": 4524,
      "Ġhoney": 4525,
      "Ġpainted": 4526,
      "Ġgrown": 4527,
      "Ġmelt": 4528,
      "ades": 4529,
      "adies": 4530,
      "ĠSp": 4531,
      "aine": 4532,
      "ĠAm": 4533,
      "ands": 4534,
      "think": 4535,
      "ĠGre": 4536,
      "ĠDost": 4537,
      "ĠDiomed": 4538,
      "icy": 4539,
      "ALBANY": 4540,
      "Ġlovely": 4541,
      "oder": 4542,
      "igo": 4543,
      "CHIEF": 4544,
      "Ġunb": 4545,
      "Ġunkind": 4546,
      "Ġheav": 4547,
      "Ġmarvel": 4548,
      "Ġappears": 4549,
      "bered": 4550,
      "Ġguess": 4551,
      "Ġturns": 4552,
      "Ġcharity": 4553,
      "Ġcrowned": 4554,
      "Ġassured": 4555,
      "Ġspoken": 4556,
      "Ġbird": 4557,
      "JAX": 4558,
      "ursed": 4559,
      "Ġwhether": 4560,
      "Ġtrumpets": 4561,
      "Ġtyran": 4562,
      "Ġsometime": 4563,
      "Ġcredit": 4564,
      "ILLIAM": 4565,
      "Ġburden": 4566,
      "HOLOFER": 4567,
      "onsieur": 4568,
      "ĠLAWRENCE": 4569,
      "HOLOFERNES": 4570,
      "AJAX": 4571,
      "Bring": 4572,
      "CU": 4573,
      "DOL": 4574,
      "Fair": 4575,
      "GBER": 4576,
      "Peace": 4577,
      "Whilst": 4578,
      "aus": 4579,
      "boy": 4580,
      "master": 4581,
      "nat": 4582,
      "uct": 4583,
      "Ġeter": 4584,
      "Ġtidings": 4585,
      "Ġsqu": 4586,
      "ndy": 4587,
      "Ġfirm": 4588,
      "Ġdumb": 4589,
      "Ġcivil": 4590,
      "arn": 4591,
      "Ġyonder": 4592,
      "Ġhid": 4593,
      "Ġpack": 4594,
      "Ġeag": 4595,
      "imer": 4596,
      "illo": 4597,
      "ills": 4598,
      "ĠHal": 4599,
      "Ġsham": 4600,
      "ĠTr": 4601,
      "Ġnobl": 4602,
      "ĠRichmond": 4603,
      "Ġbrings": 4604,
      "apt": 4605,
      "ĠThough": 4606,
      "Myself": 4607,
      "AMEM": 4608,
      "Ġcloud": 4609,
      "Ġimm": 4610,
      "Ġimper": 4611,
      "Stay": 4612,
      "coming": 4613,
      "DOGBER": 4614,
      "Ġmaids": 4615,
      "Ġwinds": 4616,
      "Ġtowards": 4617,
      "Ġabsence": 4618,
      "Ġstorm": 4619,
      "ĠBassanio": 4620,
      "Ġgirl": 4621,
      "ronicus": 4622,
      "CORNWALL": 4623,
      "ouchsafe": 4624,
      "AMEMNON": 4625,
      "DOGBERRY": 4626,
      "Lo": 4627,
      "Me": 4628,
      "Tomorrow": 4629,
      "YER": 4630,
      "bet": 4631,
      "gged": 4632,
      "kn": 4633,
      "Ġbred": 4634,
      "Ġfun": 4635,
      "Ġcat": 4636,
      "Ġcup": 4637,
      "omin": 4638,
      "Ġinvent": 4639,
      "Ġhaz": 4640,
      "ado": 4641,
      "urgu": 4642,
      "roach": 4643,
      "ĠMort": 4644,
      "ERIL": 4645,
      "ĠLear": 4646,
      "Ġshut": 4647,
      "ĠOctav": 4648,
      "Ġconvey": 4649,
      "Ġsweat": 4650,
      "Ġsack": 4651,
      "Ġprosper": 4652,
      "Ġperil": 4653,
      "ethought": 4654,
      "Ġprevent": 4655,
      "Ġprevail": 4656,
      "Ġwitch": 4657,
      "Ġimage": 4658,
      "ney": 4659,
      "neel": 4660,
      "DUMA": 4661,
      "ĠVery": 4662,
      "Ġtraitors": 4663,
      "Ġtreacher": 4664,
      "AGAMEMNON": 4665,
      "ĠDoctor": 4666,
      "ertes": 4667,
      "Ġstreets": 4668,
      "Ġreturned": 4669,
      "Ġsupper": 4670,
      "ĠOrlando": 4671,
      "bbed": 4672,
      "Ġfeared": 4673,
      "Ġdeserved": 4674,
      "Ġdivine": 4675,
      "Ġregard": 4676,
      "GONERIL": 4677,
      "Ġstudy": 4678,
      "ĠHugh": 4679,
      "Ġdisguised": 4680,
      "Ġinnocent": 4681,
      "Ġtouched": 4682,
      "ĠLysander": 4683,
      "Ġkinsman": 4684,
      "ĠPyramus": 4685,
      "Ġbenef": 4686,
      "Ġparticular": 4687,
      "ĠCAIUS": 4688,
      "urgundy": 4689,
      "DUMAINE": 4690,
      "Either": 4691,
      "FR": 4692,
      "HU": 4693,
      "Hark": 4694,
      "SOM": 4695,
      "Turn": 4696,
      "WILLIAM": 4697,
      "ZAL": 4698,
      "call": 4699,
      "speak": 4700,
      "Ġmiss": 4701,
      "reak": 4702,
      "Ġfurn": 4703,
      "Ġcuck": 4704,
      "Ġnaked": 4705,
      "Ġhig": 4706,
      "Ġpie": 4707,
      "edious": 4708,
      "Ġbecomes": 4709,
      "rible": 4710,
      "Ġrealm": 4711,
      "eared": 4712,
      "ĠTar": 4713,
      "Ġanswered": 4714,
      "ella": 4715,
      "ifts": 4716,
      "EST": 4717,
      "ĠFR": 4718,
      "antag": 4719,
      "inds": 4720,
      "Ġswore": 4721,
      "LEAN": 4722,
      "igence": 4723,
      "Ġplot": 4724,
      "Ġgreatest": 4725,
      "itting": 4726,
      "Ġperj": 4727,
      "Ġcomplex": 4728,
      "Ġlean": 4729,
      "Ġmerit": 4730,
      "mpet": 4731,
      "Ġdaughters": 4732,
      "ĠAntipholus": 4733,
      "ĠToby": 4734,
      "Ġbeloved": 4735,
      "Ġhumbly": 4736,
      "ĠHermia": 4737,
      "Ġlands": 4738,
      "twixt": 4739,
      "moreland": 4740,
      "Ġdespair": 4741,
      "Ġprophe": 4742,
      "Ġmodest": 4743,
      "Ġundone": 4744,
      "GONZAL": 4745,
      "ĠProtector": 4746,
      "Ġconquer": 4747,
      "Ġmaintain": 4748,
      "Ġhorns": 4749,
      "Ġsacred": 4750,
      "CAPULET": 4751,
      "Ġdisgrace": 4752,
      "Ġauthority": 4753,
      "oderigo": 4754,
      "Ġetern": 4755,
      "HUBERT": 4756,
      "GONZALO": 4757,
      "BLE": 4758,
      "Gentle": 4759,
      "Hast": 4760,
      "Mar": 4761,
      "MIR": 4762,
      "Master": 4763,
      "Too": 4764,
      "des": 4765,
      "ipe": 4766,
      "lock": 4767,
      "na": 4768,
      "net": 4769,
      "oard": 4770,
      "pit": 4771,
      "ris": 4772,
      "uf": 4773,
      "Ġsy": 4774,
      "Ġsore": 4775,
      "Ġfish": 4776,
      "Ġhol": 4777,
      "Ġreck": 4778,
      "roll": 4779,
      "ĠCO": 4780,
      "ĠCal": 4781,
      "ĠCupid": 4782,
      "Ġseason": 4783,
      "ĠBurgundy": 4784,
      "Ġshrew": 4785,
      "Ġabuse": 4786,
      "ption": 4787,
      "ILIP": 4788,
      "lesome": 4789,
      "Ġadieu": 4790,
      "ANDA": 4791,
      "CAS": 4792,
      "Ġmeaning": 4793,
      "Ġpurcha": 4794,
      "Ġends": 4795,
      "Ġeverything": 4796,
      "RYMAN": 4797,
      "Ġtrick": 4798,
      "Ġconsider": 4799,
      "MARTIUS": 4800,
      "Ġcountenance": 4801,
      "Ġprize": 4802,
      "Ġwronged": 4803,
      "Ġserved": 4804,
      "rancis": 4805,
      "ĠArthur": 4806,
      "Ġsickness": 4807,
      "PARIS": 4808,
      "Ġprofit": 4809,
      "Ġestate": 4810,
      "Ġrash": 4811,
      "ĠPlay": 4812,
      "Ġconstant": 4813,
      "worthy": 4814,
      "ĠTybalt": 4815,
      "mogen": 4816,
      "Ġencounter": 4817,
      "CLIFFORD": 4818,
      "Ġleng": 4819,
      "FABIAN": 4820,
      "MIRANDA": 4821,
      "Bear": 4822,
      "IBAN": 4823,
      "LUS": 4824,
      "Makes": 4825,
      "NIN": 4826,
      "SAT": 4827,
      "cap": 4828,
      "ien": 4829,
      "wh": 4830,
      "Ġz": 4831,
      "Ġtedious": 4832,
      "rees": 4833,
      "orat": 4834,
      "Ġdim": 4835,
      "Ġcool": 4836,
      "Ġnay": 4837,
      "Ġpound": 4838,
      "Ġpage": 4839,
      "ances": 4840,
      "see": 4841,
      "illed": 4842,
      "keep": 4843,
      "Ġrenown": 4844,
      "ĠWIT": 4845,
      "ĠHortensio": 4846,
      "Ġdece": 4847,
      "hiles": 4848,
      "Ġhers": 4849,
      "ĠMake": 4850,
      "ERSET": 4851,
      "ĠLa": 4852,
      "ĠGet": 4853,
      "Ġexam": 4854,
      "Ġspare": 4855,
      "Ġspec": 4856,
      "ĠFie": 4857,
      "Ġblush": 4858,
      "Ġdisdain": 4859,
      "Ġclot": 4860,
      "URNIN": 4861,
      "Ġruin": 4862,
      "forth": 4863,
      "Ġwarm": 4864,
      "Ġbestow": 4865,
      "Ġbrains": 4866,
      "Ġbodies": 4867,
      "Ġassure": 4868,
      "Ġvirtues": 4869,
      "gues": 4870,
      "ĠBeatrice": 4871,
      "Ġforest": 4872,
      "Ġfreely": 4873,
      "Ġvoices": 4874,
      "Ġsky": 4875,
      "Ġinte": 4876,
      "ĠServants": 4877,
      "Ġburning": 4878,
      "CALIBAN": 4879,
      "Ġmodesty": 4880,
      "Ġdishonor": 4881,
      "CHARLES": 4882,
      "Ġviolent": 4883,
      "Ġfiery": 4884,
      "Ġslander": 4885,
      "ĠCoriolanus": 4886,
      "Ġpublic": 4887,
      "Ġpicture": 4888,
      "Ġempty": 4889,
      "SATURNIN": 4890,
      "ĠWITCH": 4891,
      "SATURNINUS": 4892,
      "Follow": 4893,
      "Keep": 4894,
      "Might": 4895,
      "Mark": 4896,
      "Music": 4897,
      "Nothing": 4898,
      "SIL": 4899,
      "TAM": 4900,
      "eld": 4901,
      "lic": 4902,
      "pre": 4903,
      "tic": 4904,
      "Ġing": 4905,
      "Ġiron": 4906,
      "Ġtort": 4907,
      "hest": 4908,
      "Ġapt": 4909,
      "Ġsour": 4910,
      "Ġsalt": 4911,
      "Ġwing": 4912,
      "haps": 4913,
      "Ġbud": 4914,
      "Ġbrows": 4915,
      "Ġfro": 4916,
      "Ġthie": 4917,
      "Ġghost": 4918,
      "Ġhabit": 4919,
      "lender": 4920,
      "chb": 4921,
      "ĠSic": 4922,
      "amemn": 4923,
      "eare": 4924,
      "ĠMil": 4925,
      "ENCR": 4926,
      "Ġvice": 4927,
      "ement": 4928,
      "ember": 4929,
      "ĠDou": 4930,
      "Ġwash": 4931,
      "Ġtherein": 4932,
      "Ġsaying": 4933,
      "Ġbrook": 4934,
      "ROSS": 4935,
      "ickly": 4936,
      "assad": 4937,
      "Ġhonored": 4938,
      "Ġofficer": 4939,
      "Ġflatt": 4940,
      "ANTZ": 4941,
      "LAVIUS": 4942,
      "Ġprey": 4943,
      "blood": 4944,
      "Ġplayed": 4945,
      "Ġchide": 4946,
      "Ġstranger": 4947,
      "Ġmischief": 4948,
      "ĠWherefore": 4949,
      "Ġweeps": 4950,
      "Ġgarments": 4951,
      "ĠRomans": 4952,
      "Ġgroan": 4953,
      "umbers": 4954,
      "Art": 4955,
      "Ġforbear": 4956,
      "Ġsuddenly": 4957,
      "racters": 4958,
      "Ġacquaint": 4959,
      "Ġsteps": 4960,
      "ĠVenice": 4961,
      "LYSANDER": 4962,
      "Ġsuspect": 4963,
      "Ġthroat": 4964,
      "Ġvictory": 4965,
      "Ġcerem": 4966,
      "Ġvengeance": 4967,
      "TAMORA": 4968,
      "amemnon": 4969,
      "ENCRANTZ": 4970,
      "COL": 4971,
      "NER": 4972,
      "Save": 4973,
      "TTA": 4974,
      "Unt": 4975,
      "col": 4976,
      "faced": 4977,
      "how": 4978,
      "long": 4979,
      "ope": 4980,
      "sings": 4981,
      "vost": 4982,
      "wed": 4983,
      "Ġtaught": 4984,
      "hess": 4985,
      "Ġmess": 4986,
      "Ġbought": 4987,
      "Ġdares": 4988,
      "utes": 4989,
      "ric": 4990,
      "Ġstain": 4991,
      "ĠHeaven": 4992,
      "Ġdoctor": 4993,
      "Ġseas": 4994,
      "ARIEL": 4995,
      "ĠBra": 4996,
      "ĠLavinia": 4997,
      "ĠPH": 4998,
      "ĠPeter": 4999,
      "ĠGon": 5000,
      "Three": 5001,
      "emned": 5002,
      "ĠNe": 5003,
      "Ġshed": 5004,
      "ortia": 5005,
      "Ġride": 5006,
      "Ġenv": 5007,
      "Ġchair": 5008,
      "Ġcommission": 5009,
      "Ġpursu": 5010,
      "Ġearly": 5011,
      "Ġcontempt": 5012,
      "clock": 5013,
      "ĠThisbe": 5014,
      "Ġconfound": 5015,
      "ROSENCRANTZ": 5016,
      "MARGARET": 5017,
      "Ġdischar": 5018,
      "Ġvillainy": 5019,
      "change": 5020,
      "Ġwax": 5021,
      "Ġesteem": 5022,
      "Ġcolors": 5023,
      "obin": 5024,
      "ĠTheseus": 5025,
      "Ġsatisfied": 5026,
      "grim": 5027,
      "Ġchaste": 5028,
      "Ġducats": 5029,
      "Caesar": 5030,
      "ĠPisanio": 5031,
      "LUCETTA": 5032,
      "Acc": 5033,
      "BY": 5034,
      "Each": 5035,
      "FLAVIUS": 5036,
      "ZO": 5037,
      "dge": 5038,
      "iate": 5039,
      "rong": 5040,
      "uge": 5041,
      "vous": 5042,
      "when": 5043,
      "Ġet": 5044,
      "Ġtall": 5045,
      "Ġdar": 5046,
      "Ġdurst": 5047,
      "Ġloose": 5048,
      "Ġpair": 5049,
      "anqu": 5050,
      "Ġgifts": 5051,
      "aled": 5052,
      "rald": 5053,
      "ĠWh": 5054,
      "ĠWas": 5055,
      "ĠHold": 5056,
      "ĠSil": 5057,
      "ĠTranio": 5058,
      "ENZO": 5059,
      "ĠBer": 5060,
      "Ġshallow": 5061,
      "Ġshot": 5062,
      "ORENZO": 5063,
      "Ġblus": 5064,
      "Ġswall": 5065,
      "Ġhereafter": 5066,
      "ILLE": 5067,
      "Ġtells": 5068,
      "eneas": 5069,
      "Ġappre": 5070,
      "Ġrule": 5071,
      "Ġglorious": 5072,
      "Ġfinds": 5073,
      "Ġtrif": 5074,
      "Still": 5075,
      "Ġpassed": 5076,
      "Ġseemed": 5077,
      "AGUS": 5078,
      "Ġboast": 5079,
      "Ġadvice": 5080,
      "place": 5081,
      "ized": 5082,
      "otted": 5083,
      "Ġdisposition": 5084,
      "Ġbirds": 5085,
      "Ġcrave": 5086,
      "TAIN": 5087,
      "Ġdrowned": 5088,
      "Ġignorant": 5089,
      "HERMIA": 5090,
      "VIRAGUS": 5091,
      "Ġamazed": 5092,
      "Ġchallenge": 5093,
      "ĠWestmoreland": 5094,
      "ĠGeorge": 5095,
      "Ġearnest": 5096,
      "ĠPhoe": 5097,
      "ĠMortimer": 5098,
      "SOMERSET": 5099,
      "ĠTarqu": 5100,
      "antagenet": 5101,
      "ufidius": 5102,
      "oratio": 5103,
      "Ant": 5104,
      "Cha": 5105,
      "DON": 5106,
      "DIANA": 5107,
      "Fie": 5108,
      "LORENZO": 5109,
      "Rome": 5110,
      "aqu": 5111,
      "avy": 5112,
      "pass": 5113,
      "war": 5114,
      "zar": 5115,
      "hether": 5116,
      "Ġsnow": 5117,
      "inite": 5118,
      "ints": 5119,
      "Ġwaste": 5120,
      "orous": 5121,
      "Ġdying": 5122,
      "Ġcock": 5123,
      "Ġnine": 5124,
      "ĠImogen": 5125,
      "Ġherald": 5126,
      "illion": 5127,
      "asy": 5128,
      "ases": 5129,
      "Ġforfeit": 5130,
      "Ġweigh": 5131,
      "rif": 5132,
      "riel": 5133,
      "rived": 5134,
      "ĠSlender": 5135,
      "ros": 5136,
      "Ġshine": 5137,
      "iege": 5138,
      "ieved": 5139,
      "icate": 5140,
      "aug": 5141,
      "CHANT": 5142,
      "ELLE": 5143,
      "ĠAndronicus": 5144,
      "Ġfriar": 5145,
      "Ġtwain": 5146,
      "UCELLE": 5147,
      "QUIN": 5148,
      "Ġfollowers": 5149,
      "Ġcursed": 5150,
      "Ġbesides": 5151,
      "Ġbuild": 5152,
      "ĠArt": 5153,
      "ĠTroj": 5154,
      "sooth": 5155,
      "Ġminute": 5156,
      "prise": 5157,
      "Ġdespite": 5158,
      "Ġframe": 5159,
      "Ġattempt": 5160,
      "Ġlimbs": 5161,
      "Ġresolved": 5162,
      "Ġbabe": 5163,
      "ĠExeter": 5164,
      "Ġsmooth": 5165,
      "Ġelder": 5166,
      "amora": 5167,
      "glect": 5168,
      "GAV": 5169,
      "Ġcontrary": 5170,
      "Ġpilgrim": 5171,
      "\"--": 5172,
      "FIDIUS": 5173,
      "IZ": 5174,
      "PUCELLE": 5175,
      "Richard": 5176,
      "Set": 5177,
      "Sound": 5178,
      "gra": 5179,
      "give": 5180,
      "light": 5181,
      "mian": 5182,
      "part": 5183,
      "peare": 5184,
      "xford": 5185,
      "Ġsan": 5186,
      "ounce": 5187,
      "Ġwake": 5188,
      "rece": 5189,
      "Ġfixed": 5190,
      "oned": 5191,
      "Ġcease": 5192,
      "Ġnames": 5193,
      "aron": 5194,
      "Ġpear": 5195,
      "Ġpick": 5196,
      "Ġgard": 5197,
      "oops": 5198,
      "alks": 5199,
      "rike": 5200,
      "Ġstore": 5201,
      "ording": 5202,
      "roy": 5203,
      "Ġdogs": 5204,
      "Ġsearch": 5205,
      "ARVIRAGUS": 5206,
      "ENE": 5207,
      "ĠBastard": 5208,
      "iliar": 5209,
      "Ġven": 5210,
      "seless": 5211,
      "ORIZ": 5212,
      "olute": 5213,
      "Ġrhy": 5214,
      "LAIN": 5215,
      "Ġgentlewoman": 5216,
      "Ġripe": 5217,
      "ICER": 5218,
      "Ġparty": 5219,
      "Ġwhores": 5220,
      "sses": 5221,
      "Ġappet": 5222,
      "ĠPrincess": 5223,
      "Ġbegu": 5224,
      "Ġslight": 5225,
      "Ġslaughter": 5226,
      "ĠItal": 5227,
      "BERLAIN": 5228,
      "Ġtread": 5229,
      "Ġmeeting": 5230,
      "Ġsleeping": 5231,
      "Ġadvised": 5232,
      "kespeare": 5233,
      "Ġprisoners": 5234,
      "Ġdreams": 5235,
      "Ġconduct": 5236,
      "standing": 5237,
      "Ġshortly": 5238,
      "FLORIZ": 5239,
      "Ġoffended": 5240,
      "ĠShakespeare": 5241,
      "BIANCA": 5242,
      "EXETER": 5243,
      "Ġbehalf": 5244,
      "Ġfairest": 5245,
      "Ġobedience": 5246,
      "ĠOfficers": 5247,
      "ĠPetruchio": 5248,
      "ĠCAPULET": 5249,
      "ĠBalthazar": 5250,
      "Ġhazard": 5251,
      "Ġcomplexion": 5252,
      "ĠCOUNT": 5253,
      "FLORIZELL": 5254,
      "NA": 5255,
      "Whiles": 5256,
      "ipp": 5257,
      "ivers": 5258,
      "may": 5259,
      "ser": 5260,
      "zz": 5261,
      "Ġtap": 5262,
      "Ġsides": 5263,
      "inct": 5264,
      "Ġmag": 5265,
      "Ġworthi": 5266,
      "Ġfits": 5267,
      "Ġcal": 5268,
      "Ġcens": 5269,
      "arbus": 5270,
      "ĠIndeed": 5271,
      "oms": 5272,
      "Ġinfect": 5273,
      "Ġbeyond": 5274,
      "aded": 5275,
      "idence": 5276,
      "Ġreward": 5277,
      "ĠWilt": 5278,
      "Ġliest": 5279,
      "ĠHad": 5280,
      "Ġdew": 5281,
      "ĠAeneas": 5282,
      "ĠTamora": 5283,
      "run": 5284,
      "ruction": 5285,
      "Ġspake": 5286,
      "Ġvar": 5287,
      "Ġshr": 5288,
      "CHAM": 5289,
      "Ġsav": 5290,
      "Ġprovo": 5291,
      "ista": 5292,
      "Ġrock": 5293,
      "Ġdesert": 5294,
      "Ġclim": 5295,
      "Ġremains": 5296,
      "ĠVer": 5297,
      "bling": 5298,
      "ĠĠĠ": 5299,
      "Ġhark": 5300,
      "Ġreputation": 5301,
      "Ġsmiles": 5302,
      "ails": 5303,
      "Ġcover": 5304,
      "Ġundertake": 5305,
      "ĊĉĠĠĠĠĠ": 5306,
      "AUFIDIUS": 5307,
      "IMP": 5308,
      "Ġsorrows": 5309,
      "Ġruns": 5310,
      "Ġexcept": 5311,
      "Ġinfinite": 5312,
      "olles": 5313,
      "HERO": 5314,
      "Cannot": 5315,
      "Ġdevice": 5316,
      "ĠServing": 5317,
      "LANCELET": 5318,
      "ĠScot": 5319,
      "hearted": 5320,
      "ĠCamillo": 5321,
      "Ġambition": 5322,
      "Ġedge": 5323,
      "Ġpolicy": 5324,
      "ribunes": 5325,
      "ĠLeonato": 5326,
      "aptista": 5327,
      "ĠPHILIP": 5328,
      "ENEAS": 5329,
      "CHAMBERLAIN": 5330,
      "AENEAS": 5331,
      "SIMP": 5332,
      "WEST": 5333,
      "bow": 5334,
      "fellow": 5335,
      "po": 5336,
      "pic": 5337,
      "rid": 5338,
      "wife": 5339,
      "hester": 5340,
      "Ġwished": 5341,
      "Ġfate": 5342,
      "onest": 5343,
      "Ġdot": 5344,
      "Ġcares": 5345,
      "Ġpier": 5346,
      "ator": 5347,
      "Ġweeds": 5348,
      "rian": 5349,
      "Ġstock": 5350,
      "lysses": 5351,
      "ĠWor": 5352,
      "verse": 5353,
      "ĠAh": 5354,
      "ĠAufidius": 5355,
      "Ġseest": 5356,
      "ARCH": 5357,
      "ĠPat": 5358,
      "Ġves": 5359,
      "Ġgodd": 5360,
      "Ġblest": 5361,
      "Ġhateful": 5362,
      "LEY": 5363,
      "Ġsayst": 5364,
      "ĠRoderigo": 5365,
      "ĠRobin": 5366,
      "Ġseeing": 5367,
      "Ġunknown": 5368,
      "Ġalas": 5369,
      "ANTIO": 5370,
      "itten": 5371,
      "Ġglove": 5372,
      "Ġservants": 5373,
      "LUCIANA": 5374,
      "ĠLucrece": 5375,
      "Ġserp": 5376,
      "Ġmisery": 5377,
      "Ġcapt": 5378,
      "Ġtemper": 5379,
      "Only": 5380,
      "hamber": 5381,
      "Ġbarren": 5382,
      "Ġmarket": 5383,
      "Lords": 5384,
      "urio": 5385,
      "glas": 5386,
      "Between": 5387,
      "Ġdegree": 5388,
      "ĠPriam": 5389,
      "Ġfarther": 5390,
      "ĠCOUNTRYMAN": 5391,
      "JOHN": 5392,
      "Long": 5393,
      "SIMON": 5394,
      "iance": 5395,
      "ront": 5396,
      "sion": 5397,
      "ton": 5398,
      "Ġtide": 5399,
      "held": 5400,
      "Ġavo": 5401,
      "Ġmart": 5402,
      "Ġwants": 5403,
      "isc": 5404,
      "Ġbent": 5405,
      "Ġder": 5406,
      "Ġdagger": 5407,
      "owing": 5408,
      "stant": 5409,
      "Ġstaff": 5410,
      "Ġstroke": 5411,
      "cket": 5412,
      "ĠMerc": 5413,
      "Ġsell": 5414,
      "ĠGreat": 5415,
      "Ġpron": 5416,
      "arent": 5417,
      "Ġrises": 5418,
      "Ġplaces": 5419,
      "Ġquit": 5420,
      "Ġspeaking": 5421,
      "Ġflourish": 5422,
      "Ġfairly": 5423,
      "Ġwhore": 5424,
      "Ġwhither": 5425,
      "Ġprefer": 5426,
      "clus": 5427,
      "Ġfriendship": 5428,
      "Ġdearly": 5429,
      "Ġnative": 5430,
      "IDES": 5431,
      "Ġimposs": 5432,
      "ĠStay": 5433,
      "ĠAlb": 5434,
      "Ġstrife": 5435,
      "atesby": 5436,
      "econd": 5437,
      "Ġblessing": 5438,
      "inchester": 5439,
      "Ġrevenged": 5440,
      "Ġknights": 5441,
      "Ġgarland": 5442,
      "Ġperforce": 5443,
      "Ġcarrying": 5444,
      "Ġvex": 5445,
      "Ġfatal": 5446,
      "Ġpossessed": 5447,
      "ĠTruly": 5448,
      "Ġreverence": 5449,
      "Ġfigure": 5450,
      "Ġbottom": 5451,
      "Ġcompanion": 5452,
      "ĠRobert": 5453,
      "Ġodds": 5454,
      "natural": 5455,
      "Ġpieces": 5456,
      "ĠLaertes": 5457,
      "Ġvessel": 5458,
      "SIMONIDES": 5459,
      "DELLO": 5460,
      "Ed": 5461,
      "OC": 5462,
      "PAT": 5463,
      "VIN": 5464,
      "came": 5465,
      "din": 5466,
      "might": 5467,
      "rite": 5468,
      "Ġtame": 5469,
      "Ġsink": 5470,
      "ino": 5471,
      "inate": 5472,
      "Ġmak": 5473,
      "Ġwink": 5474,
      "rets": 5475,
      "Ġbury": 5476,
      "lle": 5477,
      "Ġfif": 5478,
      "Ġfelt": 5479,
      "Ġcrow": 5480,
      "ena": 5481,
      "Ġpill": 5482,
      "hath": 5483,
      "oment": 5484,
      "lean": 5485,
      "Ġstick": 5486,
      "uring": 5487,
      "ĠHoratio": 5488,
      "Ġdeer": 5489,
      "ĠMore": 5490,
      "ENET": 5491,
      "ĠBaptista": 5492,
      "Ġsuper": 5493,
      "ĠLance": 5494,
      "Ġvantage": 5495,
      "ĠFrancis": 5496,
      "quire": 5497,
      "resent": 5498,
      "outs": 5499,
      "unate": 5500,
      "Ġunse": 5501,
      "Ġabused": 5502,
      "ression": 5503,
      "ILIUS": 5504,
      "Ġwrought": 5505,
      "Ġparted": 5506,
      "Ġraise": 5507,
      "Ġprayer": 5508,
      "uchess": 5509,
      "STABLE": 5510,
      "Ġplays": 5511,
      "Ġcharm": 5512,
      "Ġsubstance": 5513,
      "Ġassist": 5514,
      "Ġsleeps": 5515,
      "elsh": 5516,
      "Ġsentence": 5517,
      "ertram": 5518,
      "Ġcreatures": 5519,
      "ferent": 5520,
      "Ġinstrument": 5521,
      "mbling": 5522,
      "giving": 5523,
      "ĠAgamemnon": 5524,
      "WOO": 5525,
      "IONDELLO": 5526,
      "Ġcloak": 5527,
      "ĠSaturn": 5528,
      "ĠDouglas": 5529,
      "ĠTarquin": 5530,
      "Ġgoddess": 5531,
      "App": 5532,
      "BIN": 5533,
      "CELL": 5534,
      "Duke": 5535,
      "HIP": 5536,
      "Heaven": 5537,
      "Off": 5538,
      "Once": 5539,
      "Rep": 5540,
      "YTA": 5541,
      "make": 5542,
      "pet": 5543,
      "sha": 5544,
      "who": 5545,
      "Ġbind": 5546,
      "erle": 5547,
      "Ġda": 5548,
      "Ġcitizens": 5549,
      "Ġnumbers": 5550,
      "oten": 5551,
      "sequ": 5552,
      "uted": 5553,
      "raid": 5554,
      "Ġrevel": 5555,
      "ĠWelcome": 5556,
      "urance": 5557,
      "ĠHence": 5558,
      "Ġsooth": 5559,
      "roclus": 5560,
      "ANLEY": 5561,
      "ested": 5562,
      "ĠPortia": 5563,
      "Ġfavors": 5564,
      "ONSO": 5565,
      "ONGAV": 5566,
      "Through": 5567,
      "Hel": 5568,
      "iced": 5569,
      "ALONSO": 5570,
      "together": 5571,
      "ELAND": 5572,
      "ROBIN": 5573,
      "Ġchase": 5574,
      "FFICER": 5575,
      "Ġraven": 5576,
      "mpets": 5577,
      "Ġcoff": 5578,
      "Ġbeauteous": 5579,
      "Although": 5580,
      "IMACH": 5581,
      "Ġreads": 5582,
      "Ġexceed": 5583,
      "Ġdefense": 5584,
      "OLIVER": 5585,
      "ĠLadyship": 5586,
      "Ġaffli": 5587,
      "Ġaccept": 5588,
      "Ġsigns": 5589,
      "Ġbeaten": 5590,
      "Ġjoint": 5591,
      "Ġgroans": 5592,
      "Ġlamb": 5593,
      "obarbus": 5594,
      "Ġdarkness": 5595,
      "Ġemperor": 5596,
      "Ġuntil": 5597,
      "Ġmountain": 5598,
      "ĠJulia": 5599,
      "MALCOL": 5600,
      "POLYTA": 5601,
      "Ġprivile": 5602,
      "ĠUlysses": 5603,
      "Ġfingers": 5604,
      "Ġaffections": 5605,
      "Ġnobles": 5606,
      "Ġprepared": 5607,
      "LYSIMACH": 5608,
      "MORELAND": 5609,
      "Ġmidnight": 5610,
      "Ġmourn": 5611,
      "Ġbounty": 5612,
      "Ġrevolt": 5613,
      "ĠMalvolio": 5614,
      "Ġsanct": 5615,
      "Ġappetite": 5616,
      "HIPPOLYTA": 5617,
      "ONGAVILLE": 5618,
      "MALCOLM": 5619,
      "LYSIMACHUS": 5620,
      "AB": 5621,
      "BIA": 5622,
      "BIONDELLO": 5623,
      "CI": 5624,
      "LONGAVILLE": 5625,
      "TRIN": 5626,
      "bes": 5627,
      "bles": 5628,
      "nock": 5629,
      "nothing": 5630,
      "pir": 5631,
      "pter": 5632,
      "Ġsought": 5633,
      "inous": 5634,
      "itol": 5635,
      "Ġfil": 5636,
      "Ġfant": 5637,
      "enius": 5638,
      "anley": 5639,
      "Ġinher": 5640,
      "Ġinward": 5641,
      "sey": 5642,
      "uties": 5643,
      "Ġisland": 5644,
      "Ġforsooth": 5645,
      "rie": 5646,
      "Ġstat": 5647,
      "Ġrender": 5648,
      "ĠWelsh": 5649,
      "urk": 5650,
      "ĠSince": 5651,
      "Ġwilling": 5652,
      "ĠAb": 5653,
      "ĠAriel": 5654,
      "ĠMe": 5655,
      "ĠMess": 5656,
      "estor": 5657,
      "Ġspur": 5658,
      "asted": 5659,
      "ĠOxford": 5660,
      "ĊĊĊ": 5661,
      "ALCI": 5662,
      "Ġblown": 5663,
      "idele": 5664,
      "Ġrotten": 5665,
      "Ġsaved": 5666,
      "Ġalike": 5667,
      "Ġalso": 5668,
      "owne": 5669,
      "Ġthinking": 5670,
      "Ġfathers": 5671,
      "acy": 5672,
      "CONSTABLE": 5673,
      "Ġglo": 5674,
      "Ġrepair": 5675,
      "Ġslew": 5676,
      "GOWER": 5677,
      "Ġpeers": 5678,
      "Ġchanged": 5679,
      "Ġretire": 5680,
      "Ġvillains": 5681,
      "Ġboar": 5682,
      "twill": 5683,
      "Ġwoeful": 5684,
      "Ġsilent": 5685,
      "Ġincre": 5686,
      "Ġdevise": 5687,
      "ĠCapul": 5688,
      "================": 5689,
      "Ġgrieve": 5690,
      "Ġfamiliar": 5691,
      "ĠGentleman": 5692,
      "ORACHIO": 5693,
      "Ġpetition": 5694,
      "Ġunfold": 5695,
      "ĠSenators": 5696,
      "Ġobserv": 5697,
      "Ġpurposes": 5698,
      "Ġcreep": 5699,
      "Ġlanguage": 5700,
      "Ġdispleasure": 5701,
      "CULO": 5702,
      "CASCA": 5703,
      "Ġlength": 5704,
      "Ġthieves": 5705,
      "anquo": 5706,
      "Ġgarden": 5707,
      "BIADES": 5708,
      "TRINCULO": 5709,
      "ALCIBIADES": 5710,
      "BL": 5711,
      "Bid": 5712,
      "BORACHIO": 5713,
      "Fear": 5714,
      "Has": 5715,
      "Men": 5716,
      "Marry": 5717,
      "Su": 5718,
      "Wilt": 5719,
      "WALD": 5720,
      "action": 5721,
      "dle": 5722,
      "ffered": 5723,
      "gn": 5724,
      "iver": 5725,
      "kneel": 5726,
      "maid": 5727,
      "much": 5728,
      "taking": 5729,
      "ĠQUEEN": 5730,
      "ĠUpon": 5731,
      "Ġtur": 5732,
      "Ġtask": 5733,
      "hend": 5734,
      "Ġsce": 5735,
      "Ġsins": 5736,
      "Ġstern": 5737,
      "inus": 5738,
      "Ġmas": 5739,
      "Ġmood": 5740,
      "Ġmoment": 5741,
      "hast": 5742,
      "isper": 5743,
      "Ġball": 5744,
      "orter": 5745,
      "ering": 5746,
      "itable": 5747,
      "Ġfed": 5748,
      "Ġnice": 5749,
      "leance": 5750,
      "Ġeight": 5751,
      "Ġfors": 5752,
      "ĠWinchester": 5753,
      "ĠColl": 5754,
      "earer": 5755,
      "ĠBel": 5756,
      "ĠPand": 5757,
      "ĠPlease": 5758,
      "Ġsple": 5759,
      "Ġneglect": 5760,
      "ĠDon": 5761,
      "ĠDen": 5762,
      "ica": 5763,
      "ept": 5764,
      "Ġworm": 5765,
      "igious": 5766,
      "Ġdiss": 5767,
      "pered": 5768,
      "Ġhandker": 5769,
      "Ġproved": 5770,
      "ĠJustice": 5771,
      "ĠJailer": 5772,
      "ĠJaqu": 5773,
      "Ġheartily": 5774,
      "Ġalthough": 5775,
      "Ġabhor": 5776,
      "ATES": 5777,
      "Ġtrade": 5778,
      "Ġbegan": 5779,
      "Ġafraid": 5780,
      "ĠSirrah": 5781,
      "Ġharsh": 5782,
      "ĠWere": 5783,
      "Ġstays": 5784,
      "Ġstayed": 5785,
      "RAV": 5786,
      "Ġstronger": 5787,
      "Ġcountrymen": 5788,
      "Ġdrinks": 5789,
      "Ġintell": 5790,
      "Ġcondemned": 5791,
      "Ġdamn": 5792,
      "ĠCapitol": 5793,
      "ĠParolles": 5794,
      "bridge": 5795,
      "BOLT": 5796,
      "Conf": 5797,
      "Ġfierce": 5798,
      "ĠHubert": 5799,
      "OSWALD": 5800,
      "ĠGreek": 5801,
      "Ġignorance": 5802,
      "ĠQuickly": 5803,
      "Ġmonths": 5804,
      "Ġwondrous": 5805,
      "Ġconceit": 5806,
      "Ġapparel": 5807,
      "Ġwolf": 5808,
      "Ġspecial": 5809,
      "chbishop": 5810,
      "Ġenvious": 5811,
      "Characters": 5812,
      "QUINCE": 5813,
      "WOOER": 5814,
      "CLUS": 5815,
      "Dost": 5816,
      "EPER": 5817,
      "Gloucester": 5818,
      "PIR": 5819,
      "Pardon": 5820,
      "Ret": 5821,
      "Tr": 5822,
      "ded": 5823,
      "horse": 5824,
      "leness": 5825,
      "oe": 5826,
      "rison": 5827,
      "yet": 5828,
      "zed": 5829,
      "Ġ6": 5830,
      "Ġsenses": 5831,
      "Ġbur": 5832,
      "Ġband": 5833,
      "Ġbite": 5834,
      "Ġcalm": 5835,
      "Ġhill": 5836,
      "Ġhind": 5837,
      "Ġhuge": 5838,
      "Ġpause": 5839,
      "Ġparent": 5840,
      "athe": 5841,
      "Ġink": 5842,
      "Ġbelly": 5843,
      "Ġbefall": 5844,
      "irty": 5845,
      "Ġforced": 5846,
      "Ġweather": 5847,
      "Ġwears": 5848,
      "Ġstained": 5849,
      "ĠWales": 5850,
      "ĠSuch": 5851,
      "ĠAlex": 5852,
      "Ġsuffered": 5853,
      "ĠGaunt": 5854,
      "Eng": 5855,
      "Ġnephe": 5856,
      "Ġamiss": 5857,
      "STANLEY": 5858,
      "ĠDrum": 5859,
      "oths": 5860,
      "Ġblunt": 5861,
      "Ġsway": 5862,
      "ostard": 5863,
      "Ġworship": 5864,
      "Ġplant": 5865,
      "Ġjour": 5866,
      "ROCLUS": 5867,
      "Ġflow": 5868,
      "Ġroom": 5869,
      "Ġfox": 5870,
      "Ġmarks": 5871,
      "ianus": 5872,
      "ICANUS": 5873,
      "Ġscene": 5874,
      "Ġperish": 5875,
      "Ġbegg": 5876,
      "KEEPER": 5877,
      "Ġkindly": 5878,
      "Ġpassage": 5879,
      "Ġresc": 5880,
      "Ġhuman": 5881,
      "Ġfalsehood": 5882,
      "Ġwindow": 5883,
      "AUMER": 5884,
      "Ġbanqu": 5885,
      "Ġhangs": 5886,
      "MENAS": 5887,
      "Ġpleasures": 5888,
      "otspur": 5889,
      "Ġundo": 5890,
      "Ġbooks": 5891,
      "ĠPlantagenet": 5892,
      "Ġpitch": 5893,
      "rumio": 5894,
      "ĠSyrac": 5895,
      "Ġacquainted": 5896,
      "NESTOR": 5897,
      "Ġfairer": 5898,
      "Ġmurdered": 5899,
      "Ġnecessity": 5900,
      "Ġenforce": 5901,
      "Ġweapons": 5902,
      "Ġdignity": 5903,
      "Ġwrack": 5904,
      "cules": 5905,
      "Ġbenefit": 5906,
      "Ġeternal": 5907,
      "Until": 5908,
      "WESTMORELAND": 5909,
      "PATROCLUS": 5910,
      "======================": 5911,
      "AUMERLE": 5912,
      "DEN": 5913,
      "Fore": 5914,
      "Hence": 5915,
      "Indeed": 5916,
      "OX": 5917,
      "OUS": 5918,
      "SUR": 5919,
      "bray": 5920,
      "lse": 5921,
      "last": 5922,
      "mark": 5923,
      "oon": 5924,
      "pier": 5925,
      "rt": 5926,
      "time": 5927,
      "ubb": 5928,
      "vior": 5929,
      "zab": 5930,
      "ĠUn": 5931,
      "Ġtarry": 5932,
      "hear": 5933,
      "Ġsings": 5934,
      "Ġwrest": 5935,
      "had": 5936,
      "Ġbade": 5937,
      "Ġfin": 5938,
      "Ġcam": 5939,
      "Ġluck": 5940,
      "Ġodd": 5941,
      "aries": 5942,
      "Ġthrows": 5943,
      "Ġpour": 5944,
      "Ġpomp": 5945,
      "Ġheight": 5946,
      "otion": 5947,
      "owbray": 5948,
      "Ġgener": 5949,
      "Ġgait": 5950,
      "ldom": 5951,
      "Ġisle": 5952,
      "ria": 5953,
      "rief": 5954,
      "Ġrepe": 5955,
      "Ġlip": 5956,
      "Ġkin": 5957,
      "ĠHotspur": 5958,
      "ĠBid": 5959,
      "Ġnobly": 5960,
      "ĠGra": 5961,
      "Ġbutcher": 5962,
      "Ġvol": 5963,
      "ĠFidele": 5964,
      "Ġshun": 5965,
      "STANCE": 5966,
      "ĠDuchess": 5967,
      "ulo": 5968,
      "Ġarrest": 5969,
      "ĠEli": 5970,
      "Ġworn": 5971,
      "umerle": 5972,
      "ĠRoss": 5973,
      "ĠThink": 5974,
      "Ġpoints": 5975,
      "Ġoffers": 5976,
      "Ġabide": 5977,
      "osing": 5978,
      "Ġgraces": 5979,
      "Ġbetwixt": 5980,
      "iano": 5981,
      "Ġperfection": 5982,
      "Ġkey": 5983,
      "CONSTANCE": 5984,
      "Ġremoved": 5985,
      "Ġcontract": 5986,
      "ISSA": 5987,
      "ĠEnobarbus": 5988,
      "Ġfeather": 5989,
      "ĠHereford": 5990,
      "Ġfaithful": 5991,
      "Ġpraised": 5992,
      "Ġserves": 5993,
      "ĠMarch": 5994,
      "ĠMaria": 5995,
      "ĠMarina": 5996,
      "Ġlaws": 5997,
      "Ġstream": 5998,
      "Ġdevils": 5999,
      "incentio": 6000,
      "HELICANUS": 6001,
      "Ġrecord": 6002,
      "ĠAttendant": 6003,
      "ĠHelp": 6004,
      "Ġmouths": 6005,
      "ĠProvost": 6006,
      "Ġadmir": 6007,
      "Ġshoot": 6008,
      "ĠCharmian": 6009,
      "ĠTrue": 6010,
      "Ġnobility": 6011,
      "Ġdisguise": 6012,
      "Ġtorment": 6013,
      "reedom": 6014,
      "Ġcomplain": 6015,
      "ITHOUS": 6016,
      "Ġconcern": 6017,
      "Ġshrewd": 6018,
      "NERISSA": 6019,
      "Ġwhoreson": 6020,
      "PIRITHOUS": 6021,
      "zabeth": 6022,
      "ĠElizabeth": 6023,
      "CESTER": 6024,
      "CARDIN": 6025,
      "Full": 6026,
      "GRAV": 6027,
      "IONE": 6028,
      "Mistress": 6029,
      "PID": 6030,
      "Sp": 6031,
      "Signior": 6032,
      "Whether": 6033,
      "hus": 6034,
      "just": 6035,
      "mong": 6036,
      "such": 6037,
      "tell": 6038,
      "Ġmurd": 6039,
      "Ġwail": 6040,
      "hamed": 6041,
      "ishes": 6042,
      "Ġbull": 6043,
      "Ġlun": 6044,
      "arm": 6045,
      "Ġyester": 6046,
      "Ġpress": 6047,
      "Ġpaint": 6048,
      "ille": 6049,
      "Ġstret": 6050,
      "Ġrend": 6051,
      "Ġrede": 6052,
      "ĠHang": 6053,
      "ĠCade": 6054,
      "ĠBea": 6055,
      "ĠLadies": 6056,
      "ĠPardon": 6057,
      "Ġknit": 6058,
      "Ġknaves": 6059,
      "Ġambit": 6060,
      "ORCESTER": 6061,
      "Ġmult": 6062,
      "ĠDiana": 6063,
      "Young": 6064,
      "Ġthereof": 6065,
      "umn": 6066,
      "Ġunnatural": 6067,
      "ĠKeep": 6068,
      "aged": 6069,
      "Ġroses": 6070,
      "lipp": 6071,
      "Ġfriendly": 6072,
      "Ġleague": 6073,
      "Ġperf": 6074,
      "Ġcler": 6075,
      "URTH": 6076,
      "Ġwithered": 6077,
      "Ġlieutenant": 6078,
      "Ġslept": 6079,
      "Ġconfirm": 6080,
      "Ġpeas": 6081,
      "Ġmoves": 6082,
      "Ġcourtier": 6083,
      "Ġstrive": 6084,
      "Ġbanishment": 6085,
      "Ġadvance": 6086,
      "Ġsecure": 6087,
      "Ġhanging": 6088,
      "FOURTH": 6089,
      "Ġcommanded": 6090,
      "Ġsends": 6091,
      "Ġpapers": 6092,
      "Ġhardly": 6093,
      "inculo": 6094,
      "Ġinfant": 6095,
      "upiter": 6096,
      "Ġpleasant": 6097,
      "Ġexped": 6098,
      "Ġwishes": 6099,
      "HELENA": 6100,
      "Ġlusty": 6101,
      "ĠAdieu": 6102,
      "Ġconquest": 6103,
      "rsites": 6104,
      "Ġjealousy": 6105,
      "ratiano": 6106,
      "HERMIONE": 6107,
      "Ġdifference": 6108,
      "THURIO": 6109,
      "Ġmilk": 6110,
      "Ġtyranny": 6111,
      "Ġhigher": 6112,
      "Ġclothes": 6113,
      "Ġtorture": 6114,
      "Ġacquaintance": 6115,
      "ARCHBISHOP": 6116,
      "Ġimpossible": 6117,
      "ĠCollat": 6118,
      "Ġbanquet": 6119,
      "CARDINAL": 6120,
      "Ġambitious": 6121,
      "Came": 6122,
      "Dear": 6123,
      "IOR": 6124,
      "Res": 6125,
      "Sings": 6126,
      "WORCESTER": 6127,
      "daughter": 6128,
      "fty": 6129,
      "iving": 6130,
      "mouth": 6131,
      "nz": 6132,
      "pul": 6133,
      "roop": 6134,
      "shi": 6135,
      "too": 6136,
      "Ġtest": 6137,
      "Ġach": 6138,
      "Ġsens": 6139,
      "Ġsiege": 6140,
      "Ġca": 6141,
      "enc": 6142,
      "Ġthorn": 6143,
      "Ġyond": 6144,
      "Ġyoke": 6145,
      "Ġtoken": 6146,
      "Ġoffered": 6147,
      "stone": 6148,
      "athed": 6149,
      "Ġbew": 6150,
      "idus": 6151,
      "Ġstoop": 6152,
      "Ġrejo": 6153,
      "ĠSure": 6154,
      "Ġashamed": 6155,
      "Ġdecl": 6156,
      "aming": 6157,
      "INCH": 6158,
      "ĠBanquo": 6159,
      "ĠPhi": 6160,
      "iffe": 6161,
      "Ġvouchsafe": 6162,
      "ĠDoth": 6163,
      "ĠTheir": 6164,
      "Ġprincess": 6165,
      "THA": 6166,
      "Ġpoet": 6167,
      "lied": 6168,
      "Ġhears": 6169,
      "Ġtroops": 6170,
      "Ġwhisper": 6171,
      "Ġcommitted": 6172,
      "aws": 6173,
      "Ġended": 6174,
      "mediate": 6175,
      "Ġyounger": 6176,
      "retion": 6177,
      "Ġconsul": 6178,
      "Ġbelong": 6179,
      "Ġaccuse": 6180,
      "Ġmonument": 6181,
      "ĠEdgar": 6182,
      "ĠHercules": 6183,
      "Ġenterprise": 6184,
      "olyta": 6185,
      "remio": 6186,
      "Ġcommonwe": 6187,
      "Ġfeeling": 6188,
      "Ġperformed": 6189,
      "Ġtroubled": 6190,
      "Ġbeasts": 6191,
      "Ġwounded": 6192,
      "spero": 6193,
      "ucelle": 6194,
      "ĠGentlemen": 6195,
      "Ġsacrif": 6196,
      "CAPTAIN": 6197,
      "Ġgently": 6198,
      "Ġwhipped": 6199,
      "Ġconjure": 6200,
      "Ġmiserable": 6201,
      "Ġcircumstance": 6202,
      "Ġunhappy": 6203,
      "ĠTrojan": 6204,
      "ippolyta": 6205,
      "ĠCapulet": 6206,
      "PIDUS": 6207,
      "Ġredeem": 6208,
      "'t": 6209,
      "Believe": 6210,
      "Lady": 6211,
      "Many": 6212,
      "Pre": 6213,
      "VIC": 6214,
      "bar": 6215,
      "fold": 6216,
      "mion": 6217,
      "sm": 6218,
      "ux": 6219,
      "uries": 6220,
      "Ġtro": 6221,
      "oubt": 6222,
      "Ġwest": 6223,
      "Ġbag": 6224,
      "Ġdow": 6225,
      "Ġcrest": 6226,
      "Ġoce": 6227,
      "arrow": 6228,
      "Ġpalm": 6229,
      "Ġtoil": 6230,
      "Ġgage": 6231,
      "illy": 6232,
      "illing": 6233,
      "alus": 6234,
      "ordelia": 6235,
      "Ġsoc": 6236,
      "Ġdeaf": 6237,
      "ĠAaron": 6238,
      "essica": 6239,
      "ĠMine": 6240,
      "ĠMESSENGER": 6241,
      "three": 6242,
      "geon": 6243,
      "ĠBertram": 6244,
      "Ġsuck": 6245,
      "Ġallow": 6246,
      "ĠPoor": 6247,
      "ĠPaul": 6248,
      "ĠGower": 6249,
      "eard": 6250,
      "ĠFIS": 6251,
      "ĠDun": 6252,
      "epidus": 6253,
      "Ġknowing": 6254,
      "Ġcann": 6255,
      "LEPIDUS": 6256,
      "ĠKATHERINE": 6257,
      "aples": 6258,
      "ĠJupiter": 6259,
      "Ġalt": 6260,
      "their": 6261,
      "Ġwrink": 6262,
      "Ġwritten": 6263,
      "Ġtrim": 6264,
      "Ġclock": 6265,
      "Ġnights": 6266,
      "Ġbegone": 6267,
      "TIT": 6268,
      "QUO": 6269,
      "Ġstanding": 6270,
      "Ġbreach": 6271,
      "Ġslaves": 6272,
      "ĠVincentio": 6273,
      "Ġmerchant": 6274,
      "Ġslee": 6275,
      "Ġtricks": 6276,
      "Ġpassing": 6277,
      "Ġchid": 6278,
      "DOVIC": 6279,
      "Ġsurely": 6280,
      "Ġbreaks": 6281,
      "Ġbanish": 6282,
      "Ġsupposed": 6283,
      "scri": 6284,
      "Sirrah": 6285,
      "Ġearthly": 6286,
      "Ġterror": 6287,
      "Ġbravely": 6288,
      "Ġwooed": 6289,
      "Ġplucked": 6290,
      "BANQUO": 6291,
      "Ġabsolute": 6292,
      "Ġmistake": 6293,
      "Ġpossession": 6294,
      "Ġrebell": 6295,
      "iddle": 6296,
      "Ġwedding": 6297,
      "Ġsealed": 6298,
      "Ġentertainment": 6299,
      "ĠMenenius": 6300,
      "ĠVenus": 6301,
      "Ġangels": 6302,
      "Ġdestroy": 6303,
      "Brother": 6304,
      "Ġpetty": 6305,
      "Ġventure": 6306,
      "Ġtailor": 6307,
      "logue": 6308,
      "Ġwaters": 6309,
      "ĠIsabella": 6310,
      "Ġcuckold": 6311,
      "Ġpurchase": 6312,
      "Ġzeal": 6313,
      "Ġmessage": 6314,
      "ĠItaly": 6315,
      "picion": 6316,
      "ĠPatroclus": 6317,
      "Ġserpent": 6318,
      "Ġavoid": 6319,
      "OCTA": 6320,
      "CELLUS": 6321,
      "kneeling": 6322,
      "Ġhandkerchief": 6323,
      "ĠFISHER": 6324,
      "DOVICO": 6325,
      "CY": 6326,
      "Cry": 6327,
      "CIS": 6328,
      "Del": 6329,
      "GUN": 6330,
      "Please": 6331,
      "cons": 6332,
      "fts": 6333,
      "ived": 6334,
      "live": 6335,
      "tong": 6336,
      "tled": 6337,
      "ym": 6338,
      "Ġsine": 6339,
      "Ġwand": 6340,
      "Ġwhip": 6341,
      "onored": 6342,
      "Ġcand": 6343,
      "Ġcell": 6344,
      "enes": 6345,
      "Ġlap": 6346,
      "Ġpawn": 6347,
      "Ġgidd": 6348,
      "Ġbeheld": 6349,
      "Ġhaunt": 6350,
      "asca": 6351,
      "Ġwept": 6352,
      "ids": 6353,
      "rive": 6354,
      "ripp": 6355,
      "Ġrecei": 6356,
      "Ġasked": 6357,
      "orenz": 6358,
      "Ġdozen": 6359,
      "Ġwillingly": 6360,
      "ANCA": 6361,
      "ANCIS": 6362,
      "ĠTribunes": 6363,
      "thought": 6364,
      "Ġsembl": 6365,
      "ello": 6366,
      "ĠGeneral": 6367,
      "Ġspurn": 6368,
      "ĠFer": 6369,
      "antus": 6370,
      "ouses": 6371,
      "Ġattain": 6372,
      "emantus": 6373,
      "iel": 6374,
      "ĠNurse": 6375,
      "Ġcontain": 6376,
      "Ġconference": 6377,
      "ounded": 6378,
      "Ġunworthy": 6379,
      "Ġque": 6380,
      "Ġquench": 6381,
      "Ġpocket": 6382,
      "Ġofficers": 6383,
      "Ġwholesome": 6384,
      "LODOVICO": 6385,
      "Ġfairy": 6386,
      "LAW": 6387,
      "Ġrail": 6388,
      "Ġcommit": 6389,
      "Ġnorth": 6390,
      "Ġremove": 6391,
      "EDWARD": 6392,
      "EDIG": 6393,
      "Ġmerri": 6394,
      "Ġgild": 6395,
      "Ġsets": 6396,
      "Ġservices": 6397,
      "Ġtrees": 6398,
      "ĠCloten": 6399,
      "MARCELLUS": 6400,
      "Ġkills": 6401,
      "Ġprice": 6402,
      "Ġaccus": 6403,
      "Ġsubtle": 6404,
      "Ġmonarch": 6405,
      "Ġneedful": 6406,
      "Ġtemple": 6407,
      "OWBRA": 6408,
      "Ġdepend": 6409,
      "Ġcrack": 6410,
      "Ġcarried": 6411,
      "Ġcorre": 6412,
      "Ġhairs": 6413,
      "Ġshield": 6414,
      "Ġinstruct": 6415,
      "Ġliberal": 6416,
      "ĠSENIOR": 6417,
      "POET": 6418,
      "Ġdrive": 6419,
      "paration": 6420,
      "Having": 6421,
      "Ġpalace": 6422,
      "ĠPoins": 6423,
      "About": 6424,
      "Ġduked": 6425,
      "Ġcombat": 6426,
      "Ġsavage": 6427,
      "Ġdaily": 6428,
      "Ġprivilege": 6429,
      "GRAVEDIG": 6430,
      "THAISA": 6431,
      "mione": 6432,
      "Ġocean": 6433,
      "ĠFISHERMAN": 6434,
      "GUNDY": 6435,
      "orenzo": 6436,
      "ANCASTER": 6437,
      "OWBRAY": 6438,
      "GRAVEDIGGER": 6439,
      "CAN": 6440,
      "CORD": 6441,
      "Draw": 6442,
      "Find": 6443,
      "FERD": 6444,
      "Get": 6445,
      "Much": 6446,
      "Making": 6447,
      "NYM": 6448,
      "Se": 6449,
      "Twere": 6450,
      "Wit": 6451,
      "bble": 6452,
      "fool": 6453,
      "made": 6454,
      "sir": 6455,
      "same": 6456,
      "Ġtut": 6457,
      "Ġtres": 6458,
      "Ġtab": 6459,
      "heard": 6460,
      "Ġmile": 6461,
      "Ġward": 6462,
      "reland": 6463,
      "isible": 6464,
      "Ġnon": 6465,
      "Ġnim": 6466,
      "Ġph": 6467,
      "Ġpull": 6468,
      "ank": 6469,
      "stable": 6470,
      "Ġeast": 6471,
      "imo": 6472,
      "Ġug": 6473,
      "alo": 6474,
      "Ġsting": 6475,
      "Ġrecomp": 6476,
      "urch": 6477,
      "ĠHim": 6478,
      "ĠSecond": 6479,
      "Ġaspect": 6480,
      "ĠAmen": 6481,
      "ĠCatesby": 6482,
      "ĠCostard": 6483,
      "ĠMusic": 6484,
      "ĠMowbray": 6485,
      "INAND": 6486,
      "INTER": 6487,
      "ĠBring": 6488,
      "Ġsup": 6489,
      "ĠLie": 6490,
      "Ġalle": 6491,
      "ĠGoths": 6492,
      "Ġfares": 6493,
      "Ġexchange": 6494,
      "Ġknot": 6495,
      "ĠFollow": 6496,
      "Ġshown": 6497,
      "ĠNone": 6498,
      "ĠNestor": 6499,
      "ĠNaples": 6500,
      "ALI": 6501,
      "Ġtheme": 6502,
      "ighed": 6503,
      "Ġdisse": 6504,
      "Ġunp": 6505,
      "Ġunw": 6506,
      "ĠThree": 6507,
      "Ġalarum": 6508,
      "Ġoffices": 6509,
      "irect": 6510,
      "ĠAndrew": 6511,
      "lia": 6512,
      "Ġdesign": 6513,
      "Ġgraves": 6514,
      "Ġotherwise": 6515,
      "Ġperhaps": 6516,
      "Ġado": 6517,
      "ached": 6518,
      "Ġrust": 6519,
      "Ġruled": 6520,
      "Ġbread": 6521,
      "Ġremorse": 6522,
      "clam": 6523,
      "Ġsmiling": 6524,
      "Ġrestra": 6525,
      "Ġkindred": 6526,
      "Ġtremble": 6527,
      "Ġcharged": 6528,
      "Ġprick": 6529,
      "Ġdrew": 6530,
      "Ġpraises": 6531,
      "Ġhumors": 6532,
      "Ġhelm": 6533,
      "Ġdiscontent": 6534,
      "Ġkissed": 6535,
      "Does": 6536,
      "Ġbank": 6537,
      "Ġadvent": 6538,
      "Ġadvise": 6539,
      "Ġcouncil": 6540,
      "ĠArchbishop": 6541,
      "Ġgrew": 6542,
      "Ġstrain": 6543,
      "Ġcholer": 6544,
      "Ġparley": 6545,
      "Ġoppos": 6546,
      "Ġshadows": 6547,
      "Ġshift": 6548,
      "Ġabsent": 6549,
      "Ġfamous": 6550,
      "Ġamongst": 6551,
      "Ġjewels": 6552,
      "ĠGreeks": 6553,
      "ĠSenate": 6554,
      "Among": 6555,
      "Ġbleeding": 6556,
      "Ġenforced": 6557,
      "ĠBritain": 6558,
      "Ġprodig": 6559,
      "DOLL": 6560,
      "ĠTrinculo": 6561,
      "Ġexample": 6562,
      "aughed": 6563,
      "Ġscepter": 6564,
      "Ġjourney": 6565,
      "ubborn": 6566,
      "CORDELIA": 6567,
      "FERDINAND": 6568,
      "BANTIO": 6569,
      "Gu": 6570,
      "Lay": 6571,
      "MOWBRAY": 6572,
      "None": 6573,
      "aven": 6574,
      "court": 6575,
      "ere": 6576,
      "fav": 6577,
      "lain": 6578,
      "mar": 6579,
      "ohe": 6580,
      "oan": 6581,
      "ubl": 6582,
      "Ġir": 6583,
      "Ġtum": 6584,
      "Ġtaking": 6585,
      "reason": 6586,
      "ndello": 6587,
      "Ġbon": 6588,
      "Ġbill": 6589,
      "Ġbore": 6590,
      "Ġbasket": 6591,
      "eril": 6592,
      "eriss": 6593,
      "Ġfran": 6594,
      "enter": 6595,
      "Ġling": 6596,
      "Ġlent": 6597,
      "Ġoak": 6598,
      "Ġope": 6599,
      "Ġthrown": 6600,
      "Ġyellow": 6601,
      "Ġpee": 6602,
      "anced": 6603,
      "atcl": 6604,
      "sec": 6605,
      "uts": 6606,
      "adua": 6607,
      "Ġweek": 6608,
      "Ġstubborn": 6609,
      "Ġliqu": 6610,
      "Ġasse": 6611,
      "Ġshapes": 6612,
      "ĠMonsieur": 6613,
      "ĠTha": 6614,
      "Ġsequ": 6615,
      "Ġload": 6616,
      "Ġsuits": 6617,
      "ĠLepidus": 6618,
      "ĠPhil": 6619,
      "ĠPucelle": 6620,
      "elled": 6621,
      "ĠGrumio": 6622,
      "ĠGratiano": 6623,
      "Ġspace": 6624,
      "venge": 6625,
      "Ġblue": 6626,
      "eline": 6627,
      "ĠEmp": 6628,
      "Ġrate": 6629,
      "Ġseeks": 6630,
      "Ġunjust": 6631,
      "Ġshoulders": 6632,
      "iondello": 6633,
      "Ġaloft": 6634,
      "IRON": 6635,
      "liena": 6636,
      "Behold": 6637,
      "Ġperpet": 6638,
      "Ġsweetly": 6639,
      "Ġafeard": 6640,
      "never": 6641,
      "Ġleads": 6642,
      "Ġslay": 6643,
      "Ġcontro": 6644,
      "Ġgiving": 6645,
      "Thanks": 6646,
      "Ġconfusion": 6647,
      "Ġfever": 6648,
      "Ġcurtain": 6649,
      "MARIANA": 6650,
      "Ġimprison": 6651,
      "mbeline": 6652,
      "Ġdiscover": 6653,
      "Ġmisc": 6654,
      "ĠStanley": 6655,
      "ĠAlack": 6656,
      "Ġyouthful": 6657,
      "Ġstrikes": 6658,
      "Another": 6659,
      "Ġjoys": 6660,
      "Ġjoyful": 6661,
      "Ġforeign": 6662,
      "Ġdelay": 6663,
      "noon": 6664,
      "Ġlately": 6665,
      "Ġdrums": 6666,
      "Ġredress": 6667,
      "Ġcoron": 6668,
      "ollo": 6669,
      "voc": 6670,
      "Ġvisage": 6671,
      "UTLAW": 6672,
      "Ġproport": 6673,
      "Ġgrievous": 6674,
      "Ġveins": 6675,
      "ĠFlore": 6676,
      "Ġresolution": 6677,
      "ĠHelena": 6678,
      "Ġerror": 6679,
      "ĠMayor": 6680,
      "Ġdecay": 6681,
      "Ġwhiles": 6682,
      "BRABANTIO": 6683,
      "friend": 6684,
      "Attendants": 6685,
      "Ġaudience": 6686,
      "ĠGrec": 6687,
      "Ġceremony": 6688,
      "Romeo": 6689,
      "Ġincrease": 6690,
      "Ġspleen": 6691,
      "Ġnephew": 6692,
      "erissa": 6693,
      "atcliffe": 6694,
      "Boy": 6695,
      "Cons": 6696,
      "Faith": 6697,
      "Leave": 6698,
      "OBER": 6699,
      "SC": 6700,
      "duff": 6701,
      "foot": 6702,
      "gone": 6703,
      "mor": 6704,
      "Ġtied": 6705,
      "Ġaged": 6706,
      "Ġwot": 6707,
      "Ġwore": 6708,
      "eral": 6709,
      "erity": 6710,
      "ita": 6711,
      "ital": 6712,
      "Ġfreedom": 6713,
      "Ġcave": 6714,
      "ency": 6715,
      "Ġlines": 6716,
      "Ġnation": 6717,
      "Ġhy": 6718,
      "ĠIreland": 6719,
      "Ġpace": 6720,
      "Ġtow": 6721,
      "Ġgoose": 6722,
      "ative": 6723,
      "atient": 6724,
      "Ġbere": 6725,
      "Ġbeats": 6726,
      "enton": 6727,
      "uses": 6728,
      "Ġreach": 6729,
      "Ġlift": 6730,
      "Ġliking": 6731,
      "urvy": 6732,
      "Ġwills": 6733,
      "ĠAumerle": 6734,
      "ĠAliena": 6735,
      "Ġshade": 6736,
      "ĠCorn": 6737,
      "ĠTw": 6738,
      "Ġseize": 6739,
      "ARL": 6740,
      "Ġant": 6741,
      "Ġsuitor": 6742,
      "ĠLong": 6743,
      "ĠGremio": 6744,
      "Ġspy": 6745,
      "Ġspread": 6746,
      "Ġvass": 6747,
      "Ġshines": 6748,
      "ously": 6749,
      "Ġmuse": 6750,
      "ĠDavy": 6751,
      "ĠThersites": 6752,
      "ulf": 6753,
      "Ġblot": 6754,
      "olt": 6755,
      "Ġorn": 6756,
      "ĠEvery": 6757,
      "CHIRON": 6758,
      "Ġshoulder": 6759,
      "ĠThurio": 6760,
      "ĠJessica": 6761,
      "ickle": 6762,
      "Ġaboard": 6763,
      "Ġroar": 6764,
      "ILDEN": 6765,
      "livia": 6766,
      "Ġlooking": 6767,
      "erving": 6768,
      "Ġparting": 6769,
      "Ġscru": 6770,
      "Ġrapier": 6771,
      "llowed": 6772,
      "Ġappl": 6773,
      "new": 6774,
      "Ġwarri": 6775,
      "onso": 6776,
      "Ġpreserve": 6777,
      "IDOW": 6778,
      "BOTH": 6779,
      "Ġcurses": 6780,
      "Ġlights": 6781,
      "Ġoverth": 6782,
      "Ġdiscretion": 6783,
      "Ġserious": 6784,
      "Ġgray": 6785,
      "Ġjustly": 6786,
      "lete": 6787,
      "Ġvalue": 6788,
      "OTHSA": 6789,
      "Ġbox": 6790,
      "Ġboots": 6791,
      "ĠArm": 6792,
      "Ġstrongly": 6793,
      "Ġrunning": 6794,
      "Ġcrying": 6795,
      "Ġfields": 6796,
      "Ġcorp": 6797,
      "himself": 6798,
      "Ġaddition": 6799,
      "BURGUNDY": 6800,
      "Ġships": 6801,
      "Ġpitiful": 6802,
      "Ġinstruments": 6803,
      "PAINTER": 6804,
      "Ġago": 6805,
      "iban": 6806,
      "eyed": 6807,
      "STERN": 6808,
      "Ġverse": 6809,
      "phelia": 6810,
      "Ġinjury": 6811,
      "Ġmurderer": 6812,
      "ĠOnly": 6813,
      "Ġproclaimed": 6814,
      "Servant": 6815,
      "Ġgaze": 6816,
      "Ġfleet": 6817,
      "Ġsaucy": 6818,
      "Ġeagle": 6819,
      "Ġinvention": 6820,
      "ĠOctavia": 6821,
      "FRANCIS": 6822,
      "LEANS": 6823,
      "Ġperjured": 6824,
      "Ġinterest": 6825,
      "ĠMilan": 6826,
      "assador": 6827,
      "Ġrhyme": 6828,
      "Ġcensure": 6829,
      "dinand": 6830,
      "Ġfifty": 6831,
      "ĠLancelet": 6832,
      "Ġgiddy": 6833,
      "Ġpeevish": 6834,
      "ĠEmpress": 6835,
      "OBERON": 6836,
      "ILDENSTERN": 6837,
      "OTHSAYER": 6838,
      "\";": 6839,
      "AUS": 6840,
      "Cor": 6841,
      "CUR": 6842,
      "Else": 6843,
      "France": 6844,
      "NARD": 6845,
      "PPA": 6846,
      "Wor": 6847,
      "WIDOW": 6848,
      "bell": 6849,
      "bio": 6850,
      "back": 6851,
      "ci": 6852,
      "cra": 6853,
      "ming": 6854,
      "nor": 6855,
      "upt": 6856,
      "Ġav": 6857,
      "Ġming": 6858,
      "isa": 6859,
      "Ġbru": 6860,
      "Ġbeds": 6861,
      "Ġburst": 6862,
      "ese": 6863,
      "Ġdote": 6864,
      "Ġdressed": 6865,
      "Ġcro": 6866,
      "enches": 6867,
      "Ġlaughter": 6868,
      "Ġnet": 6869,
      "Ġnest": 6870,
      "Ġhom": 6871,
      "Ġhail": 6872,
      "Ġevent": 6873,
      "Ġnotice": 6874,
      "Ġwithdraw": 6875,
      "adle": 6876,
      "ala": 6877,
      "alse": 6878,
      "ril": 6879,
      "Ġstro": 6880,
      "Ġlikes": 6881,
      "ĠHippolyta": 6882,
      "amy": 6883,
      "Ġshare": 6884,
      "ĠCordelia": 6885,
      "ĠCasca": 6886,
      "Ġlocked": 6887,
      "ARNARD": 6888,
      "ĠBRO": 6889,
      "ĠBishop": 6890,
      "ĠBarn": 6891,
      "Ġsuc": 6892,
      "rue": 6893,
      "ĠPadua": 6894,
      "Ġexper": 6895,
      "Ġspl": 6896,
      "Ġvul": 6897,
      "Ġshook": 6898,
      "ĠOUTLAW": 6899,
      "ĠOphelia": 6900,
      "Ġmanhood": 6901,
      "ORLEANS": 6902,
      "Ġswears": 6903,
      "Ġtheirs": 6904,
      "ĠEros": 6905,
      "umes": 6906,
      "Ġrus": 6907,
      "Ġlikely": 6908,
      "ung": 6909,
      "Ġdisease": 6910,
      "Ġplaced": 6911,
      "ELBO": 6912,
      "oldier": 6913,
      "ILOR": 6914,
      "ullus": 6915,
      "lips": 6916,
      "Ġdesired": 6917,
      "ignier": 6918,
      "RIPPA": 6919,
      "wards": 6920,
      "Ġtroop": 6921,
      "Ġscour": 6922,
      "Ġscope": 6923,
      "Ġwhit": 6924,
      "about": 6925,
      "aches": 6926,
      "sweet": 6927,
      "Ġpursue": 6928,
      "Ġcouldst": 6929,
      "Ġbestowed": 6930,
      "Ġcoat": 6931,
      "Ġfollowing": 6932,
      "irtue": 6933,
      "Ġcurst": 6934,
      "Ġcurrent": 6935,
      "comfort": 6936,
      "ontin": 6937,
      "Ġobsc": 6938,
      "ĠStep": 6939,
      "Ġentered": 6940,
      "Ġreading": 6941,
      "Ġcommands": 6942,
      "Ġtalked": 6943,
      "Ġgrowing": 6944,
      "stern": 6945,
      "scape": 6946,
      "MASTER": 6947,
      "Ġmettle": 6948,
      "Ġlearning": 6949,
      "Ġsurfeit": 6950,
      "Ġdeserves": 6951,
      "Ġbeholding": 6952,
      "Ġpenny": 6953,
      "Ġtowns": 6954,
      "Ġactions": 6955,
      "Ġgranted": 6956,
      "ĠProspero": 6957,
      "ĠAdrian": 6958,
      "Ġeffects": 6959,
      "VERS": 6960,
      "Ġrebels": 6961,
      "GUILDENSTERN": 6962,
      "cannot": 6963,
      "ĠTyre": 6964,
      "Ġinvisible": 6965,
      "ĠAthenian": 6966,
      "Ġhostess": 6967,
      "Brutus": 6968,
      "Ġapart": 6969,
      "Ġrefuse": 6970,
      "Ġurged": 6971,
      "Ġconditions": 6972,
      "Ġstopped": 6973,
      "Ġobedient": 6974,
      "Ġgovernment": 6975,
      "Ġpersuade": 6976,
      "Ġweapon": 6977,
      "Ġusurp": 6978,
      "better": 6979,
      "Ġdeceit": 6980,
      "Ġflatte": 6981,
      "Ġdischarge": 6982,
      "ĠBerowne": 6983,
      "Ġclimb": 6984,
      "Ġinherit": 6985,
      "ATESBY": 6986,
      "Ġtrespass": 6987,
      "Ġugly": 6988,
      "Ġrecompense": 6989,
      "ELBOW": 6990,
      "Bel": 6991,
      "BARNARD": 6992,
      "Cousin": 6993,
      "CATESBY": 6994,
      "Fall": 6995,
      "GILIA": 6996,
      "Im": 6997,
      "Lie": 6998,
      "LANT": 6999,
      "Queen": 7000,
      "Run": 7001,
      "Seem": 7002,
      "SOLDIER": 7003,
      "Warwick": 7004,
      "bors": 7005,
      "down": 7006,
      "fast": 7007,
      "gon": 7008,
      "mod": 7009,
      "must": 7010,
      "rings": 7011,
      "tr": 7012,
      "wall": 7013,
      "work": 7014,
      "women": 7015,
      "ymp": 7016,
      "Ġaunt": 7017,
      "Ġmoral": 7018,
      "isons": 7019,
      "Ġbay": 7020,
      "itic": 7021,
      "itio": 7022,
      "Ġcorse": 7023,
      "Ġcardinal": 7024,
      "enstern": 7025,
      "Ġlaughed": 7026,
      "Ġnun": 7027,
      "Ġnamed": 7028,
      "Ġhue": 7029,
      "Ġhounds": 7030,
      "owl": 7031,
      "Ġgather": 7032,
      "cellent": 7033,
      "imple": 7034,
      "rase": 7035,
      "raced": 7036,
      "Ġsty": 7037,
      "Ġstout": 7038,
      "ĠHath": 7039,
      "rog": 7040,
      "hief": 7041,
      "ĠCol": 7042,
      "ĠMust": 7043,
      "ĠTom": 7044,
      "EROS": 7045,
      "Ġseldom": 7046,
      "ĠBelieve": 7047,
      "ĠLANCASTER": 7048,
      "ĠLitio": 7049,
      "ĠGREY": 7050,
      "arded": 7051,
      "ĠDian": 7052,
      "ulate": 7053,
      "Ġblast": 7054,
      "Ġhated": 7055,
      "ĠEsc": 7056,
      "aker": 7057,
      "Ġrhe": 7058,
      "THAS": 7059,
      "Ġunl": 7060,
      "osop": 7061,
      "iteous": 7062,
      "Ġdescend": 7063,
      "igned": 7064,
      "Ġgrands": 7065,
      "Ġdeaths": 7066,
      "Ġpartly": 7067,
      "Ġclamor": 7068,
      "iable": 7069,
      "Ġappointed": 7070,
      "Ġbegun": 7071,
      "Ġbegged": 7072,
      "Ġbreeds": 7073,
      "blet": 7074,
      "Ġrepose": 7075,
      "AGENET": 7076,
      "AGRIPPA": 7077,
      "Ġcurts": 7078,
      "Ġafternoon": 7079,
      "Ġaccess": 7080,
      "Ġaccident": 7081,
      "anson": 7082,
      "Ġgrat": 7083,
      "ĠShepherd": 7084,
      "ĠBeing": 7085,
      "ildenstern": 7086,
      "Alack": 7087,
      "Ġbush": 7088,
      "Ġbusy": 7089,
      "Ġremembered": 7090,
      "two": 7091,
      "Ġlesser": 7092,
      "Ġdelicate": 7093,
      "Ġsupply": 7094,
      "Show": 7095,
      "Twill": 7096,
      "GHOST": 7097,
      "Ġcontented": 7098,
      "Ġwisely": 7099,
      "hilosop": 7100,
      "MERCHANT": 7101,
      "Ġsteep": 7102,
      "Ġburns": 7103,
      "Ġbosoms": 7104,
      "Ġcastle": 7105,
      "Ġcowards": 7106,
      "Ġprophes": 7107,
      "Ġtitles": 7108,
      "ĠAdam": 7109,
      "Ġstrumpet": 7110,
      "Ġmiracle": 7111,
      "Ġeasily": 7112,
      "Ġfilled": 7113,
      "Prince": 7114,
      "Prithee": 7115,
      "Ġchastity": 7116,
      "Ġtorch": 7117,
      "Ġcontinue": 7118,
      "Ġconclusion": 7119,
      "Ġobserve": 7120,
      "Ġeldest": 7121,
      "ĠBassianus": 7122,
      "GAUNT": 7123,
      "ĠConstable": 7124,
      "ĠApemantus": 7125,
      "Ġimagination": 7126,
      "SOOTHSAYER": 7127,
      "Lucius": 7128,
      "BALTHAS": 7129,
      "WILLIAMS": 7130,
      "Ġrenowned": 7131,
      "ĠPandarus": 7132,
      "SURREY": 7133,
      "INCHESTER": 7134,
      "ĠFerdinand": 7135,
      "clamation": 7136,
      "favored": 7137,
      "ohemia": 7138,
      "ĠBROTHER": 7139,
      "LANTAGENET": 7140,
      "ymph": 7141,
      "BALTHASAR": 7142,
      "BRI": 7143,
      "Ch": 7144,
      "CER": 7145,
      "Cass": 7146,
      "Henry": 7147,
      "ILO": 7148,
      "Imp": 7149,
      "IGH": 7150,
      "JESS": 7151,
      "Knock": 7152,
      "Old": 7153,
      "Sm": 7154,
      "Up": 7155,
      "WINCHESTER": 7156,
      "again": 7157,
      "char": 7158,
      "ium": 7159,
      "nel": 7160,
      "sl": 7161,
      "Ġsaint": 7162,
      "ourage": 7163,
      "inary": 7164,
      "Ġwander": 7165,
      "Ġbrace": 7166,
      "Ġfan": 7167,
      "Ġfront": 7168,
      "once": 7169,
      "eseech": 7170,
      "Ġcaught": 7171,
      "arius": 7172,
      "Ġpate": 7173,
      "Ġheap": 7174,
      "stit": 7175,
      "Ġgame": 7176,
      "atic": 7177,
      "lend": 7178,
      "asp": 7179,
      "key": 7180,
      "Ġforty": 7181,
      "alter": 7182,
      "rand": 7183,
      "Ġstale": 7184,
      "Ġlivery": 7185,
      "urb": 7186,
      "room": 7187,
      "Ġdeceive": 7188,
      "Ġdove": 7189,
      "ĠAng": 7190,
      "andal": 7191,
      "ĠTurk": 7192,
      "ĠBiondello": 7193,
      "Ġansw": 7194,
      "Ġsue": 7195,
      "runk": 7196,
      "ĠGrey": 7197,
      "hano": 7198,
      "hant": 7199,
      "nty": 7200,
      "Ġconven": 7201,
      "Ġarrived": 7202,
      "hylock": 7203,
      "umed": 7204,
      "ignty": 7205,
      "Ġunm": 7206,
      "ioch": 7207,
      "aph": 7208,
      "ĠJoan": 7209,
      "Ġalter": 7210,
      "Ġflat": 7211,
      "Ġflout": 7212,
      "many": 7213,
      "ICA": 7214,
      "Ġfearing": 7215,
      "Ġraised": 7216,
      "Ġragged": 7217,
      "Ġadvers": 7218,
      "ably": 7219,
      "Ġkingly": 7220,
      "Ġruff": 7221,
      "Ġlevel": 7222,
      "Ġnewly": 7223,
      "ensed": 7224,
      "Ġeveryone": 7225,
      "Ġcoin": 7226,
      "Ġhousehold": 7227,
      "Ġmothers": 7228,
      "Ġresist": 7229,
      "comb": 7230,
      "Ġaccom": 7231,
      "Ġhusbands": 7232,
      "Ġassurance": 7233,
      "Ġdivor": 7234,
      "attered": 7235,
      "Ġspoil": 7236,
      "Ġdistem": 7237,
      "essengers": 7238,
      "Ġterm": 7239,
      "Ġterrible": 7240,
      "Ġsuffic": 7241,
      "Ġrecover": 7242,
      "ossess": 7243,
      "Ġbargain": 7244,
      "Ġbarbar": 7245,
      "Ġpays": 7246,
      "prus": 7247,
      "Ġestim": 7248,
      "Ġclean": 7249,
      "Ġselfsame": 7250,
      "ĠRegan": 7251,
      "ugby": 7252,
      "VERNON": 7253,
      "worth": 7254,
      "ĠSERVANT": 7255,
      "headed": 7256,
      "ivity": 7257,
      "Ġschol": 7258,
      "ĠCominius": 7259,
      "Ġmutiny": 7260,
      "Ġsuspicion": 7261,
      "Ġbehavior": 7262,
      "giance": 7263,
      "Death": 7264,
      "Ġtribute": 7265,
      "VIRGILIA": 7266,
      "ĠBlunt": 7267,
      "ĠCressida": 7268,
      "ĠVols": 7269,
      "IGN": 7270,
      "Ġhaply": 7271,
      "Somet": 7272,
      "boys": 7273,
      "Ġimmortal": 7274,
      "Ġtreacherous": 7275,
      "ĠFRANCE": 7276,
      "indsor": 7277,
      "Ġreckon": 7278,
      "Ġfrost": 7279,
      "ĠWhither": 7280,
      "ĠServingman": 7281,
      "ĠScotland": 7282,
      "Ġrebellion": 7283,
      "Ġsinews": 7284,
      "Ġsucceed": 7285,
      "JESSICA": 7286,
      "Ġanswers": 7287,
      "DIT": 7288,
      "Ear": 7289,
      "Giving": 7290,
      "PLANTAGENET": 7291,
      "Rather": 7292,
      "RAT": 7293,
      "Send": 7294,
      "Sleep": 7295,
      "UG": 7296,
      "VAR": 7297,
      "VELL": 7298,
      "could": 7299,
      "great": 7300,
      "ias": 7301,
      "ips": 7302,
      "mons": 7303,
      "nken": 7304,
      "rising": 7305,
      "serv": 7306,
      "ties": 7307,
      "vity": 7308,
      "word": 7309,
      "Ġte": 7310,
      "Ġtim": 7311,
      "Ġax": 7312,
      "Ġale": 7313,
      "Ġsire": 7314,
      "Ġsouth": 7315,
      "Ġwet": 7316,
      "isher": 7317,
      "Ġbul": 7318,
      "Ġbac": 7319,
      "orus": 7320,
      "erves": 7321,
      "Ġdun": 7322,
      "Ġcamp": 7323,
      "Ġlater": 7324,
      "Ġhie": 7325,
      "Ġpest": 7326,
      "Ġpred": 7327,
      "Ġphilosop": 7328,
      "Ġtooth": 7329,
      "Ġhaw": 7330,
      "Ġec": 7331,
      "utch": 7332,
      "utio": 7333,
      "imp": 7334,
      "asing": 7335,
      "Ġforces": 7336,
      "ription": 7337,
      "ours": 7338,
      "ĠHy": 7339,
      "ĠHail": 7340,
      "ĠSon": 7341,
      "Ġsoil": 7342,
      "ĠMon": 7343,
      "ĠThose": 7344,
      "Ġlov": 7345,
      "ARINO": 7346,
      "ĠLo": 7347,
      "ĠLeave": 7348,
      "ĠLorenzo": 7349,
      "Ġexile": 7350,
      "Ġspit": 7351,
      "ĠOther": 7352,
      "Ġmanly": 7353,
      "Ġamend": 7354,
      "ulous": 7355,
      "ĠNym": 7356,
      "ĠNerissa": 7357,
      "Ġoracle": 7358,
      "Ġrouse": 7359,
      "Ġlikewise": 7360,
      "uno": 7361,
      "uned": 7362,
      "unity": 7363,
      "Ġdise": 7364,
      "Ġpled": 7365,
      "Ġquest": 7366,
      "imely": 7367,
      "Ġproc": 7368,
      "Ġhole": 7369,
      "Ġleap": 7370,
      "RIC": 7371,
      "Ġfairies": 7372,
      "Ġriot": 7373,
      "Ġsweetest": 7374,
      "weep": 7375,
      "acles": 7376,
      "Ġkeen": 7377,
      "Ġpreparation": 7378,
      "Ġbeget": 7379,
      "Ġafoot": 7380,
      "Ġimmediate": 7381,
      "ĠNoble": 7382,
      "EDFORD": 7383,
      "ĠĠĠĠ": 7384,
      "ewis": 7385,
      "ension": 7386,
      "Ġyoungest": 7387,
      "Ġcoast": 7388,
      "Ġguide": 7389,
      "without": 7390,
      "Ġcheck": 7391,
      "Ġthrong": 7392,
      "orset": 7393,
      "Ġaccursed": 7394,
      "Ġsubd": 7395,
      "Ġbreathing": 7396,
      "Ġhenceforth": 7397,
      "ĠAlc": 7398,
      "ĠAlonso": 7399,
      "PERDIT": 7400,
      "Ġsecrets": 7401,
      "Ġstrangely": 7402,
      "twenty": 7403,
      "Ġinfl": 7404,
      "Ġinfirm": 7405,
      "soever": 7406,
      "Ġdrunken": 7407,
      "Ġcarri": 7408,
      "PETER": 7409,
      "Ġfourt": 7410,
      "nights": 7411,
      "Ġweakness": 7412,
      "Ġapprove": 7413,
      "Whither": 7414,
      "Ġresolve": 7415,
      "Ġerr": 7416,
      "ĠLovell": 7417,
      "Ġsatisfaction": 7418,
      "Ġproceeding": 7419,
      "Ġsmoke": 7420,
      "ĠCambio": 7421,
      "Ġprovided": 7422,
      "Play": 7423,
      "Ġconclude": 7424,
      "ĠLADY": 7425,
      "Ġthroats": 7426,
      "Ġowes": 7427,
      "Ġtribunes": 7428,
      "Ġlodging": 7429,
      "Ġdirectly": 7430,
      "ĠCymbeline": 7431,
      "ĠCyprus": 7432,
      "True": 7433,
      "Ġextremity": 7434,
      "Ġfuneral": 7435,
      "ĠGoneril": 7436,
      "Ġblushing": 7437,
      "Ġtrifle": 7438,
      "ĠPhoebe": 7439,
      "Ġvenom": 7440,
      "SIMPLE": 7441,
      "hamberlain": 7442,
      "Help": 7443,
      "ĠMessala": 7444,
      "Ġintelligence": 7445,
      "Ġrescue": 7446,
      "Ġsleeve": 7447,
      "rippa": 7448,
      "Ġnimble": 7449,
      "ĠMusicians": 7450,
      "ĠBarnard": 7451,
      "PERDITA": 7452,
      "Amen": 7453,
      "Bardolph": 7454,
      "DGE": 7455,
      "Fly": 7456,
      "Father": 7457,
      "OUN": 7458,
      "Tit": 7459,
      "UE": 7460,
      "away": 7461,
      "den": 7462,
      "dra": 7463,
      "eward": 7464,
      "follow": 7465,
      "lord": 7466,
      "mine": 7467,
      "mission": 7468,
      "pret": 7469,
      "roof": 7470,
      "side": 7471,
      "sues": 7472,
      "vive": 7473,
      "why": 7474,
      "Ġtar": 7475,
      "Ġtig": 7476,
      "Ġtired": 7477,
      "Ġsilly": 7478,
      "Ġwalks": 7479,
      "reme": 7480,
      "Ġfount": 7481,
      "Ġfret": 7482,
      "Ġfires": 7483,
      "Ġdil": 7484,
      "Ġdame": 7485,
      "Ġcud": 7486,
      "Ġlark": 7487,
      "Ġlying": 7488,
      "Ġnap": 7489,
      "Ġhouses": 7490,
      "Ġpiteous": 7491,
      "ania": 7492,
      "Ġgru": 7493,
      "athered": 7494,
      "Ġbeams": 7495,
      "cends": 7496,
      "Ġhare": 7497,
      "iring": 7498,
      "chor": 7499,
      "Ġnoted": 7500,
      "Ġforms": 7501,
      "adv": 7502,
      "rial": 7503,
      "ĠWindsor": 7504,
      "Ġsol": 7505,
      "cknow": 7506,
      "Ġwillow": 7507,
      "ANIEL": 7508,
      "ĠCelia": 7509,
      "ĠMer": 7510,
      "ĠTill": 7511,
      "ĠBed": 7512,
      "ĠBesides": 7513,
      "Ġann": 7514,
      "Ġsull": 7515,
      "Ġsung": 7516,
      "Ġsugg": 7517,
      "ĠPart": 7518,
      "ĠGhost": 7519,
      "Ġfact": 7520,
      "Ġfawn": 7521,
      "Ġexpl": 7522,
      "Ġexerc": 7523,
      "Ġspect": 7524,
      "ĠOlivia": 7525,
      "Ġamen": 7526,
      "Ġamends": 7527,
      "ORTER": 7528,
      "Ġconvers": 7529,
      "Ġblaz": 7530,
      "Ġsirs": 7531,
      "Ġthereby": 7532,
      "Ġworks": 7533,
      "THANIEL": 7534,
      "Ġjot": 7535,
      "Ġjack": 7536,
      "ĠHec": 7537,
      "Ġaloud": 7538,
      "Ġoffenses": 7539,
      "Ġflame": 7540,
      "Ġroaring": 7541,
      "Ġscandal": 7542,
      "Ġperchance": 7543,
      "Ġbegot": 7544,
      "TIMER": 7545,
      "Ġmerc": 7546,
      "rantz": 7547,
      "Ġbraw": 7548,
      "Ġcop": 7549,
      "Ġfalling": 7550,
      "Strike": 7551,
      "AGUE": 7552,
      "ixenes": 7553,
      "Ġlightning": 7554,
      "Ġbreathed": 7555,
      "Ġstrang": 7556,
      "Ġbidding": 7557,
      "ĠLucio": 7558,
      "Ġgrass": 7559,
      "Ġobtain": 7560,
      "Ġbreaking": 7561,
      "REIGN": 7562,
      "Ġsounded": 7563,
      "Ġstrict": 7564,
      "ĠHermione": 7565,
      "keness": 7566,
      "CORIN": 7567,
      "Ġsadness": 7568,
      "Ġskin": 7569,
      "Ġworking": 7570,
      "Ġyielded": 7571,
      "Ġsovereignty": 7572,
      "ĠHelic": 7573,
      "Ġjoined": 7574,
      "Commend": 7575,
      "Ġopposed": 7576,
      "Ġcrosses": 7577,
      "Ġcrossed": 7578,
      "Ġkingdoms": 7579,
      "conbridge": 7580,
      "ĠMacduff": 7581,
      "Ġbabes": 7582,
      "idden": 7583,
      "Ġancest": 7584,
      "Ġqualities": 7585,
      "Ġknocks": 7586,
      "ĠRosaline": 7587,
      "SALARINO": 7588,
      "Ġevils": 7589,
      "Ġprovide": 7590,
      "Better": 7591,
      "OSRIC": 7592,
      "Ġdestruction": 7593,
      "Ġforswear": 7594,
      "Ġbreeding": 7595,
      "Ġapace": 7596,
      "Ġconclud": 7597,
      "Ġurge": 7598,
      "Ġmourning": 7599,
      "Ġexpectation": 7600,
      "Ġdismiss": 7601,
      "Ġphysician": 7602,
      "WOMAN": 7603,
      "Ġemployed": 7604,
      "Ġsenseless": 7605,
      "Ġguiltless": 7606,
      "MONTANO": 7607,
      "Ġgrandam": 7608,
      "Ġpotent": 7609,
      "Ġloyalty": 7610,
      "ĠIsabel": 7611,
      "Remember": 7612,
      "Something": 7613,
      "Ġprevailed": 7614,
      "Gentlemen": 7615,
      "SILVIUS": 7616,
      "Ġapprehend": 7617,
      "Ġpearl": 7618,
      "leanor": 7619,
      "Return": 7620,
      "England": 7621,
      "Ġbeggars": 7622,
      "ĠSyracuse": 7623,
      "ĠCollatine": 7624,
      "encrantz": 7625,
      "Ġcommonwealth": 7626,
      "Ġsemblance": 7627,
      "Ġdukedom": 7628,
      "Ġphrase": 7629,
      "Ġallegiance": 7630,
      "Ġopposite": 7631,
      "ublius": 7632,
      "Ġproportion": 7633,
      "Ġvulgar": 7634,
      "Ġgrandsire": 7635,
      "BRIDGE": 7636,
      "lendower": 7637,
      "Ġfourteen": 7638,
      "OUNG": 7639,
      "REIGNIER": 7640,
      "ABELLA": 7641,
      "BEDFORD": 7642,
      "Char": 7643,
      "CENTIO": 7644,
      "DICK": 7645,
      "DION": 7646,
      "EBE": 7647,
      "Hang": 7648,
      "John": 7649,
      "OEBE": 7650,
      "PORTER": 7651,
      "Sit": 7652,
      "SLY": 7653,
      "Ty": 7654,
      "TON": 7655,
      "York": 7656,
      "YOUNG": 7657,
      "Zounds": 7658,
      "ban": 7659,
      "body": 7660,
      "face": 7661,
      "gard": 7662,
      "iqu": 7663,
      "ipl": 7664,
      "mity": 7665,
      "ns": 7666,
      "name": 7667,
      "pri": 7668,
      "rim": 7669,
      "rish": 7670,
      "son": 7671,
      "uell": 7672,
      "villain": 7673,
      "wing": 7674,
      "wind": 7675,
      "Ġ7": 7676,
      "Ġvers": 7677,
      "Ġslip": 7678,
      "Ġmass": 7679,
      "Ġwipe": 7680,
      "Ġwenches": 7681,
      "lled": 7682,
      "itation": 7683,
      "Ġfold": 7684,
      "onc": 7685,
      "Ġdat": 7686,
      "Ġdart": 7687,
      "Ġchat": 7688,
      "Ġcook": 7689,
      "Ġthin": 7690,
      "Ġthrew": 7691,
      "Ġthread": 7692,
      "Ġpush": 7693,
      "eder": 7694,
      "othed": 7695,
      "Ġgn": 7696,
      "Ġinform": 7697,
      "advent": 7698,
      "Ġstraw": 7699,
      "Ġstamp": 7700,
      "ĠWol": 7701,
      "ĠSn": 7702,
      "Ġashes": 7703,
      "Ġsolic": 7704,
      "Ġdefect": 7705,
      "ANIA": 7706,
      "ĠCo": 7707,
      "ĠMant": 7708,
      "Ġlocks": 7709,
      "ARTHUR": 7710,
      "Ġsust": 7711,
      "ĠLewis": 7712,
      "ĠPut": 7713,
      "Ġfaction": 7714,
      "Ġspark": 7715,
      "Ġvoy": 7716,
      "antle": 7717,
      "Ġmanif": 7718,
      "Ġmanage": 7719,
      "Ġupright": 7720,
      "Things": 7721,
      "ĠDraw": 7722,
      "icha": 7723,
      "Ġgoods": 7724,
      "Ġcontend": 7725,
      "ALEX": 7726,
      "Ġarise": 7727,
      "Ġworms": 7728,
      "Ġroof": 7729,
      "Ġtrunk": 7730,
      "ĠJud": 7731,
      "Ġaltogether": 7732,
      "Ġflint": 7733,
      "LOVELL": 7734,
      "Ġrobbed": 7735,
      "these": 7736,
      "RIVERS": 7737,
      "PHOEBE": 7738,
      "abian": 7739,
      "Ġappoint": 7740,
      "Ġappeared": 7741,
      "URSU": 7742,
      "Ġpreced": 7743,
      "Ġcompare": 7744,
      "Ġslaught": 7745,
      "Ġcontents": 7746,
      "Ġeverlast": 7747,
      "Ġreproach": 7748,
      "Ġkeeper": 7749,
      "Ġeverywhere": 7750,
      "Ġtried": 7751,
      "ULPH": 7752,
      "Ġchest": 7753,
      "Ġtrembling": 7754,
      "Ġchin": 7755,
      "Ġaccused": 7756,
      "Ġaccomp": 7757,
      "Ġaccording": 7758,
      "DOWER": 7759,
      "Ġvillainous": 7760,
      "OMAS": 7761,
      "Ġthankful": 7762,
      "Ġhappily": 7763,
      "Ġcareful": 7764,
      "Ġdisposed": 7765,
      "Ġdistress": 7766,
      "Ġcomforts": 7767,
      "Ġcraves": 7768,
      "Ġpleasing": 7769,
      "Ġsurvey": 7770,
      "Ġrequite": 7771,
      "Ġsignify": 7772,
      "Ġmocked": 7773,
      "chers": 7774,
      "Ġdirection": 7775,
      "Arm": 7776,
      "Ġhideous": 7777,
      "Ġrasc": 7778,
      "Ġcloset": 7779,
      "Ġbaby": 7780,
      "LENDOWER": 7781,
      "Ġinnocence": 7782,
      "Clarence": 7783,
      "Ġinstantly": 7784,
      "Ġtouches": 7785,
      "Ġdearer": 7786,
      "ĠGuildenstern": 7787,
      "Ġhunger": 7788,
      "Ġhungry": 7789,
      "Ġgreeting": 7790,
      "Ġbottle": 7791,
      "ĠAgrippa": 7792,
      "Ġfeeble": 7793,
      "Ġapparent": 7794,
      "looked": 7795,
      "Ġguests": 7796,
      "Ġmiseries": 7797,
      "Ġministers": 7798,
      "ĠPolonius": 7799,
      "ĠOctavius": 7800,
      "Ġtreachery": 7801,
      "ĠSilence": 7802,
      "Ġbeguile": 7803,
      "NATHANIEL": 7804,
      "ĠWorcester": 7805,
      "VINCENTIO": 7806,
      "Ġforsake": 7807,
      "eptune": 7808,
      "ĠJaques": 7809,
      "Ġyesterday": 7810,
      "Ġclerk": 7811,
      "Ġpeasant": 7812,
      "Ġsensible": 7813,
      "Ġsociety": 7814,
      "ĠPaulina": 7815,
      "TITANIA": 7816,
      "Ġperpetual": 7817,
      "ĠGrecian": 7818,
      "ĠEscalus": 7819,
      "ĠVolsces": 7820,
      "Ġexplo": 7821,
      "uellen": 7822,
      "Break": 7823,
      "GARDIN": 7824,
      "GLENDOWER": 7825,
      "Lea": 7826,
      "Methought": 7827,
      "NOX": 7828,
      "NIGH": 7829,
      "Over": 7830,
      "OOL": 7831,
      "OFFICER": 7832,
      "Ros": 7833,
      "Soldiers": 7834,
      "Tro": 7835,
      "WELL": 7836,
      "bon": 7837,
      "iven": 7838,
      "lter": 7839,
      "lorn": 7840,
      "met": 7841,
      "mind": 7842,
      "money": 7843,
      "nes": 7844,
      "ule": 7845,
      "vius": 7846,
      "wake": 7847,
      "Ġtal": 7848,
      "Ġtie": 7849,
      "Ġtren": 7850,
      "oured": 7851,
      "Ġwakes": 7852,
      "reg": 7853,
      "Ġbrown": 7854,
      "orp": 7855,
      "Ġfem": 7856,
      "Ġdine": 7857,
      "Ġdate": 7858,
      "Ġdiff": 7859,
      "Ġcel": 7860,
      "Ġlower": 7861,
      "Ġlads": 7862,
      "Ġnails": 7863,
      "Ġye": 7864,
      "ĠInd": 7865,
      "Ġpi": 7866,
      "Ġpul": 7867,
      "another": 7868,
      "ingu": 7869,
      "Ġgap": 7870,
      "Ġinfection": 7871,
      "utland": 7872,
      "iments": 7873,
      "cho": 7874,
      "Ġweed": 7875,
      "alty": 7876,
      "Ġhist": 7877,
      "Ġliver": 7878,
      "Ġlions": 7879,
      "Ġlikeness": 7880,
      "ĠSur": 7881,
      "ĠSoft": 7882,
      "ĠSoldier": 7883,
      "vert": 7884,
      "ainty": 7885,
      "aints": 7886,
      "--\"": 7887,
      "Ġdefe": 7888,
      "ĠChamberlain": 7889,
      "Ġlock": 7890,
      "ĠLay": 7891,
      "ĠLike": 7892,
      "ĠGar": 7893,
      "ĠGlendower": 7894,
      "Ġvap": 7895,
      "ĠFA": 7896,
      "ĠFenton": 7897,
      "ĠFabian": 7898,
      "artered": 7899,
      "oused": 7900,
      "ĠDorset": 7901,
      "icle": 7902,
      "ula": 7903,
      "ĠNeptune": 7904,
      "Ġconceive": 7905,
      "elaus": 7906,
      "Ġprime": 7907,
      "Ġknowest": 7908,
      "Ġwashed": 7909,
      "alled": 7910,
      "reath": 7911,
      "ĠELEAN": 7912,
      "ĠRatcliffe": 7913,
      "igent": 7914,
      "Ġprocess": 7915,
      "Ġalack": 7916,
      "Ġrope": 7917,
      "Ġrobe": 7918,
      "liament": 7919,
      "Ġtelling": 7920,
      "Ġmarked": 7921,
      "Ġwrites": 7922,
      "Ġriver": 7923,
      "Ġriches": 7924,
      "Ġscurvy": 7925,
      "Ġrav": 7926,
      "acious": 7927,
      "before": 7928,
      "Wherefore": 7929,
      "Whereof": 7930,
      "achimo": 7931,
      "ĠViol": 7932,
      "Ġharbor": 7933,
      "Ġendea": 7934,
      "ailed": 7935,
      "Ġhourly": 7936,
      "Ġcoll": 7937,
      "Ġcoats": 7938,
      "ĠAntioch": 7939,
      "Ġnatures": 7940,
      "withstanding": 7941,
      "Ġcheap": 7942,
      "Ġrights": 7943,
      "Ġrightly": 7944,
      "young": 7945,
      "Ġpeer": 7946,
      "Ġpeep": 7947,
      "Ġmoan": 7948,
      "Ġbackward": 7949,
      "mbers": 7950,
      "Ġkissing": 7951,
      "Ġbeaut": 7952,
      "Ġgrim": 7953,
      "ĠBehold": 7954,
      "ĠAlanson": 7955,
      "Ġcareless": 7956,
      "Ġtalking": 7957,
      "ottom": 7958,
      "Ġforehead": 7959,
      "Ġsuppose": 7960,
      "Ġroyalty": 7961,
      "Ġdefy": 7962,
      "Twixt": 7963,
      "Ġdistract": 7964,
      "ĠOrleance": 7965,
      "Ġattending": 7966,
      "PANDULPH": 7967,
      "Ġacts": 7968,
      "Ġsteward": 7969,
      "Ġsignior": 7970,
      "eshrew": 7971,
      "Ġladder": 7972,
      "prised": 7973,
      "ursions": 7974,
      "Ġwalked": 7975,
      "Ġwheel": 7976,
      "cape": 7977,
      "Comes": 7978,
      "Ġstirring": 7979,
      "Ġheirs": 7980,
      "Ġbonds": 7981,
      "racter": 7982,
      "Ġdishonored": 7983,
      "Ġreligious": 7984,
      "Ġpoisoned": 7985,
      "Ġrebel": 7986,
      "ĠCounty": 7987,
      "Ġsafely": 7988,
      "LARTIUS": 7989,
      "Ġsatisfy": 7990,
      "Ġmarching": 7991,
      "Ġcruelty": 7992,
      "Ġelements": 7993,
      "Ġfrowns": 7994,
      "ispers": 7995,
      "ĠShow": 7996,
      "Ġowl": 7997,
      "Ġinjuries": 7998,
      "Ġpunished": 7999
    },
    "merges": [
      [
        "Ġ",
        "t"
      ],
      [
        "h",
        "e"
      ],
      [
        "Ġ",
        "a"
      ],
      [
        "Ġ",
        "s"
      ],
      [
        "o",
        "u"
      ],
      [
        "i",
        "n"
      ],
      [
        "Ġ",
        "m"
      ],
      [
        "Ġ",
        "w"
      ],
      [
        "r",
        "e"
      ],
      [
        "h",
        "a"
      ],
      [
        "n",
        "d"
      ],
      [
        "Ġt",
        "he"
      ],
      [
        "i",
        "s"
      ],
      [
        "Ġ",
        "b"
      ],
      [
        "o",
        "r"
      ],
      [
        "e",
        "r"
      ],
      [
        "l",
        "l"
      ],
      [
        "i",
        "t"
      ],
      [
        "Ġ",
        "f"
      ],
      [
        "o",
        "n"
      ],
      [
        "e",
        "s"
      ],
      [
        "Ġ",
        "d"
      ],
      [
        "Ġ",
        "c"
      ],
      [
        "e",
        "n"
      ],
      [
        "Ġ",
        "l"
      ],
      [
        "Ġ",
        "o"
      ],
      [
        "Ġ",
        "n"
      ],
      [
        "a",
        "r"
      ],
      [
        "Ġt",
        "h"
      ],
      [
        "Ġ",
        "y"
      ],
      [
        "Ġ",
        "h"
      ],
      [
        "Ġ",
        "I"
      ],
      [
        "Ġ",
        "p"
      ],
      [
        "Ġy",
        "ou"
      ],
      [
        "Ġt",
        "o"
      ],
      [
        "ha",
        "t"
      ],
      [
        "e",
        "d"
      ],
      [
        "Ġa",
        "nd"
      ],
      [
        "a",
        "n"
      ],
      [
        "Ġo",
        "f"
      ],
      [
        "Ġ",
        "he"
      ],
      [
        "o",
        "t"
      ],
      [
        "in",
        "g"
      ],
      [
        "v",
        "e"
      ],
      [
        "o",
        "w"
      ],
      [
        "s",
        "t"
      ],
      [
        "o",
        "m"
      ],
      [
        "Ġ",
        "g"
      ],
      [
        "a",
        "t"
      ],
      [
        "Ġ",
        "in"
      ],
      [
        "Ġb",
        "e"
      ],
      [
        "s",
        "e"
      ],
      [
        "c",
        "e"
      ],
      [
        "e",
        "t"
      ],
      [
        "Ġ",
        "ha"
      ],
      [
        "Ġm",
        "y"
      ],
      [
        "l",
        "d"
      ],
      [
        "a",
        "y"
      ],
      [
        "l",
        "e"
      ],
      [
        "Ġ",
        "e"
      ],
      [
        "u",
        "t"
      ],
      [
        "i",
        "r"
      ],
      [
        "it",
        "h"
      ],
      [
        "i",
        "m"
      ],
      [
        "Ġm",
        "e"
      ],
      [
        "c",
        "h"
      ],
      [
        "g",
        "h"
      ],
      [
        "'",
        "s"
      ],
      [
        "Ġn",
        "ot"
      ],
      [
        "i",
        "ll"
      ],
      [
        "Ġ",
        "is"
      ],
      [
        "a",
        "s"
      ],
      [
        "Ġt",
        "hat"
      ],
      [
        "A",
        "nd"
      ],
      [
        "o",
        "o"
      ],
      [
        "T",
        "he"
      ],
      [
        "k",
        "e"
      ],
      [
        "Ġf",
        "or"
      ],
      [
        "Ġ",
        "u"
      ],
      [
        "Ġw",
        "ith"
      ],
      [
        "a",
        "d"
      ],
      [
        "Ġw",
        "e"
      ],
      [
        "i",
        "d"
      ],
      [
        "t",
        "er"
      ],
      [
        "Ġ",
        "it"
      ],
      [
        "a",
        "l"
      ],
      [
        "en",
        "t"
      ],
      [
        "Ġh",
        "is"
      ],
      [
        "he",
        "r"
      ],
      [
        ".",
        "]"
      ],
      [
        "Ġyou",
        "r"
      ],
      [
        "r",
        "i"
      ],
      [
        "r",
        "a"
      ],
      [
        "Ġs",
        "t"
      ],
      [
        "=",
        "="
      ],
      [
        "gh",
        "t"
      ],
      [
        "ou",
        "r"
      ],
      [
        "Ġth",
        "ou"
      ],
      [
        "l",
        "y"
      ],
      [
        "u",
        "s"
      ],
      [
        "Ġh",
        "im"
      ],
      [
        "Ġ",
        "re"
      ],
      [
        "or",
        "d"
      ],
      [
        "Ġ",
        "W"
      ],
      [
        "Ġth",
        "is"
      ],
      [
        "om",
        "e"
      ],
      [
        "Ġl",
        "i"
      ],
      [
        "u",
        "r"
      ],
      [
        "Ġ",
        "k"
      ],
      [
        "Ġha",
        "ve"
      ],
      [
        "Ġ",
        "H"
      ],
      [
        "Ġ",
        "S"
      ],
      [
        "Ġa",
        "s"
      ],
      [
        "o",
        "re"
      ],
      [
        "Ġ",
        "on"
      ],
      [
        "Ġs",
        "o"
      ],
      [
        "v",
        "er"
      ],
      [
        "ou",
        "ld"
      ],
      [
        "a",
        "in"
      ],
      [
        "r",
        "o"
      ],
      [
        "-",
        "-"
      ],
      [
        "Ġd",
        "e"
      ],
      [
        "h",
        "i"
      ],
      [
        "c",
        "k"
      ],
      [
        "Ġd",
        "o"
      ],
      [
        "oo",
        "d"
      ],
      [
        "Ġw",
        "ill"
      ],
      [
        "a",
        "m"
      ],
      [
        "Ġ",
        "A"
      ],
      [
        "a",
        "nd"
      ],
      [
        "Ġs",
        "ha"
      ],
      [
        "es",
        "s"
      ],
      [
        "A",
        "N"
      ],
      [
        "Ġ",
        "C"
      ],
      [
        "e",
        "a"
      ],
      [
        "i",
        "on"
      ],
      [
        "Ġhe",
        "r"
      ],
      [
        "Ġ",
        "M"
      ],
      [
        "Ġ",
        "T"
      ],
      [
        "E",
        "R"
      ],
      [
        "es",
        "t"
      ],
      [
        "t",
        "h"
      ],
      [
        "U",
        "S"
      ],
      [
        "Ġs",
        "e"
      ],
      [
        "g",
        "e"
      ],
      [
        "I",
        "N"
      ],
      [
        "Ġl",
        "o"
      ],
      [
        "A",
        "R"
      ],
      [
        "Ġth",
        "y"
      ],
      [
        "E",
        "N"
      ],
      [
        "Ġ",
        "B"
      ],
      [
        "Ġa",
        "n"
      ],
      [
        "Ġn",
        "o"
      ],
      [
        "Ġs",
        "u"
      ],
      [
        "Ġ",
        "L"
      ],
      [
        "i",
        "l"
      ],
      [
        "Ġa",
        "ll"
      ],
      [
        "r",
        "u"
      ],
      [
        "Ġ",
        "P"
      ],
      [
        "a",
        "ke"
      ],
      [
        "e",
        "ll"
      ],
      [
        "Ġ",
        "G"
      ],
      [
        "Ġb",
        "ut"
      ],
      [
        "Ġ",
        "'"
      ],
      [
        "i",
        "f"
      ],
      [
        "Ġf",
        "a"
      ],
      [
        "h",
        "o"
      ],
      [
        "c",
        "t"
      ],
      [
        "Ġe",
        "x"
      ],
      [
        "Ġs",
        "p"
      ],
      [
        "i",
        "ght"
      ],
      [
        "e",
        "ar"
      ],
      [
        "T",
        "o"
      ],
      [
        "ha",
        "n"
      ],
      [
        "Ġk",
        "n"
      ],
      [
        "E",
        "S"
      ],
      [
        "Ġsha",
        "ll"
      ],
      [
        "r",
        "om"
      ],
      [
        "Ġthe",
        "e"
      ],
      [
        "Ġa",
        "re"
      ],
      [
        "Ġ",
        "v"
      ],
      [
        "Ġ",
        "["
      ],
      [
        "ar",
        "d"
      ],
      [
        "Ġ",
        "F"
      ],
      [
        "a",
        "st"
      ],
      [
        "Ġb",
        "y"
      ],
      [
        "ar",
        "t"
      ],
      [
        "Ġs",
        "h"
      ],
      [
        "an",
        "t"
      ],
      [
        "O",
        "N"
      ],
      [
        "Ġ",
        "our"
      ],
      [
        "E",
        "n"
      ],
      [
        "in",
        "e"
      ],
      [
        "e",
        "nd"
      ],
      [
        "Ġn",
        "e"
      ],
      [
        "Ġ",
        "O"
      ],
      [
        "n",
        "t"
      ],
      [
        "Ġm",
        "an"
      ],
      [
        "ou",
        "s"
      ],
      [
        "T",
        "hat"
      ],
      [
        "q",
        "u"
      ],
      [
        "Ġa",
        "t"
      ],
      [
        "Ġu",
        "p"
      ],
      [
        "on",
        "e"
      ],
      [
        "se",
        "l"
      ],
      [
        "Ġa",
        "m"
      ],
      [
        "O",
        "R"
      ],
      [
        "S",
        "T"
      ],
      [
        "re",
        "s"
      ],
      [
        "ou",
        "t"
      ],
      [
        "T",
        "h"
      ],
      [
        "Ġm",
        "u"
      ],
      [
        "in",
        "d"
      ],
      [
        "e",
        "m"
      ],
      [
        "er",
        "s"
      ],
      [
        "'",
        "ll"
      ],
      [
        "Ġc",
        "om"
      ],
      [
        "H",
        "e"
      ],
      [
        "i",
        "e"
      ],
      [
        "he",
        "n"
      ],
      [
        "Ġ",
        "D"
      ],
      [
        "hi",
        "ch"
      ],
      [
        "r",
        "y"
      ],
      [
        "on",
        "g"
      ],
      [
        "i",
        "c"
      ],
      [
        "Ġg",
        "ood"
      ],
      [
        "Ġg",
        "o"
      ],
      [
        "Ġl",
        "ord"
      ],
      [
        "O",
        "L"
      ],
      [
        "Ġ",
        "The"
      ],
      [
        "u",
        "l"
      ],
      [
        "i",
        "ve"
      ],
      [
        "Ġ",
        "N"
      ],
      [
        "Ġc",
        "on"
      ],
      [
        "Ġs",
        "he"
      ],
      [
        "Ġf",
        "rom"
      ],
      [
        "ot",
        "h"
      ],
      [
        "Ċ",
        "Ċ"
      ],
      [
        "En",
        "ter"
      ],
      [
        "r",
        "ow"
      ],
      [
        "v",
        "en"
      ],
      [
        "b",
        "le"
      ],
      [
        "A",
        "L"
      ],
      [
        "Ġw",
        "hat"
      ],
      [
        "Ġb",
        "l"
      ],
      [
        "he",
        "re"
      ],
      [
        "e",
        "l"
      ],
      [
        "Ġp",
        "r"
      ],
      [
        "Ġs",
        "w"
      ],
      [
        "Ġlo",
        "ve"
      ],
      [
        "e",
        "p"
      ],
      [
        "Ġex",
        "it"
      ],
      [
        "Ġkn",
        "ow"
      ],
      [
        "Ġw",
        "as"
      ],
      [
        "Ġthe",
        "m"
      ],
      [
        "u",
        "re"
      ],
      [
        "f",
        "e"
      ],
      [
        "p",
        "p"
      ],
      [
        "a",
        "u"
      ],
      [
        "Ġm",
        "ore"
      ],
      [
        "o",
        "l"
      ],
      [
        "a",
        "ll"
      ],
      [
        "Ġthe",
        "ir"
      ],
      [
        "Ġw",
        "ould"
      ],
      [
        "==",
        "=="
      ],
      [
        "o",
        "st"
      ],
      [
        "re",
        "at"
      ],
      [
        "Ġc",
        "an"
      ],
      [
        "Ġn",
        "ow"
      ],
      [
        "B",
        "ut"
      ],
      [
        "Ġ",
        "hat"
      ],
      [
        "sel",
        "f"
      ],
      [
        "Ġthe",
        "y"
      ],
      [
        "Y",
        "ou"
      ],
      [
        "Ġa",
        "r"
      ],
      [
        "or",
        "t"
      ],
      [
        "L",
        "E"
      ],
      [
        "Ġ",
        "or"
      ],
      [
        "Ġt",
        "han"
      ],
      [
        "a",
        "re"
      ],
      [
        "t",
        "o"
      ],
      [
        "in",
        "k"
      ],
      [
        "Ġs",
        "ir"
      ],
      [
        "Ġu",
        "s"
      ],
      [
        "at",
        "e"
      ],
      [
        "id",
        "e"
      ],
      [
        "I",
        "O"
      ],
      [
        "v",
        "es"
      ],
      [
        "Ġ",
        "E"
      ],
      [
        "h",
        "y"
      ],
      [
        "Ġthe",
        "re"
      ],
      [
        "Ġw",
        "or"
      ],
      [
        "Ġs",
        "ay"
      ],
      [
        "Ċ",
        "Ġ"
      ],
      [
        "u",
        "m"
      ],
      [
        "a",
        "k"
      ],
      [
        "u",
        "e"
      ],
      [
        ".",
        "--"
      ],
      [
        "re",
        "d"
      ],
      [
        "at",
        "h"
      ],
      [
        "Ġ",
        "r"
      ],
      [
        "Ġ",
        "if"
      ],
      [
        "oo",
        "k"
      ],
      [
        "Ġ",
        "R"
      ],
      [
        "o",
        "d"
      ],
      [
        "Ġhe",
        "re"
      ],
      [
        "i",
        "g"
      ],
      [
        "at",
        "her"
      ],
      [
        "Ġl",
        "et"
      ],
      [
        "ou",
        "nd"
      ],
      [
        "ot",
        "her"
      ],
      [
        "am",
        "e"
      ],
      [
        "T",
        "H"
      ],
      [
        "Ġli",
        "ke"
      ],
      [
        "C",
        "H"
      ],
      [
        "u",
        "n"
      ],
      [
        "Ġd",
        "is"
      ],
      [
        "Ġhat",
        "h"
      ],
      [
        "F",
        "or"
      ],
      [
        "Ġp",
        "l"
      ],
      [
        "Ġ",
        "j"
      ],
      [
        "Ġwe",
        "ll"
      ],
      [
        "Ġon",
        "e"
      ],
      [
        "Ġthe",
        "n"
      ],
      [
        "Ġse",
        "e"
      ],
      [
        "Ġb",
        "r"
      ],
      [
        "Ġu",
        "n"
      ],
      [
        "f",
        "ore"
      ],
      [
        "E",
        "L"
      ],
      [
        "Ġ",
        "K"
      ],
      [
        "an",
        "ce"
      ],
      [
        "IN",
        "G"
      ],
      [
        "Ġd",
        "id"
      ],
      [
        "Ġsh",
        "ould"
      ],
      [
        "Ġm",
        "ay"
      ],
      [
        "Ġ",
        "en"
      ],
      [
        "g",
        "ain"
      ],
      [
        "I",
        "A"
      ],
      [
        "R",
        "O"
      ],
      [
        "i",
        "ce"
      ],
      [
        "Ġm",
        "ad"
      ],
      [
        "o",
        "ld"
      ],
      [
        "Ġm",
        "ake"
      ],
      [
        "A",
        "s"
      ],
      [
        "Ġc",
        "ome"
      ],
      [
        "p",
        "e"
      ],
      [
        "ĠH",
        "e"
      ],
      [
        "ea",
        "k"
      ],
      [
        "Ġ",
        "qu"
      ],
      [
        "Ġ",
        "out"
      ],
      [
        "Ġup",
        "on"
      ],
      [
        "ĠW",
        "hat"
      ],
      [
        "Ġmu",
        "st"
      ],
      [
        "Ġs",
        "a"
      ],
      [
        "it",
        "y"
      ],
      [
        "ver",
        "y"
      ],
      [
        "is",
        "h"
      ],
      [
        "Ġw",
        "hich"
      ],
      [
        "Ġwe",
        "re"
      ],
      [
        "i",
        "es"
      ],
      [
        "im",
        "e"
      ],
      [
        "I",
        "US"
      ],
      [
        "Ġha",
        "d"
      ],
      [
        "Ġto",
        "o"
      ],
      [
        "Ġha",
        "nd"
      ],
      [
        "i",
        "o"
      ],
      [
        "a",
        "p"
      ],
      [
        "Ġp",
        "ro"
      ],
      [
        "Ġt",
        "ru"
      ],
      [
        "f",
        "f"
      ],
      [
        "Ġ",
        "\""
      ],
      [
        "K",
        "ING"
      ],
      [
        "ĠT",
        "h"
      ],
      [
        "Ġe",
        "y"
      ],
      [
        "Ġsu",
        "ch"
      ],
      [
        "Ġp",
        "o"
      ],
      [
        "or",
        "n"
      ],
      [
        "is",
        "t"
      ],
      [
        "Ġ",
        "J"
      ],
      [
        "Ġhe",
        "art"
      ],
      [
        "M",
        "y"
      ],
      [
        "Ġw",
        "hen"
      ],
      [
        "i",
        "ck"
      ],
      [
        "as",
        "s"
      ],
      [
        "W",
        "hat"
      ],
      [
        "t",
        "her"
      ],
      [
        "Ġa",
        "l"
      ],
      [
        "Ġa",
        "gain"
      ],
      [
        "n",
        "ess"
      ],
      [
        "v",
        "ed"
      ],
      [
        "I",
        "R"
      ],
      [
        "is",
        "e"
      ],
      [
        "a",
        "ve"
      ],
      [
        "ou",
        "gh"
      ],
      [
        "o",
        "nd"
      ],
      [
        "Ġh",
        "on"
      ],
      [
        "ing",
        "s"
      ],
      [
        "Ġof",
        "f"
      ],
      [
        "i",
        "re"
      ],
      [
        "Ġw",
        "ho"
      ],
      [
        "en",
        "ce"
      ],
      [
        "w",
        "n"
      ],
      [
        "ur",
        "n"
      ],
      [
        "Ġy",
        "et"
      ],
      [
        "Ġsp",
        "eak"
      ],
      [
        "he",
        "d"
      ],
      [
        "e",
        "et"
      ],
      [
        "a",
        "ge"
      ],
      [
        "Ġ",
        "And"
      ],
      [
        "o",
        "y"
      ],
      [
        "The",
        "y"
      ],
      [
        "ow",
        "n"
      ],
      [
        "a",
        "ck"
      ],
      [
        "ad",
        "y"
      ],
      [
        "ĠK",
        "ing"
      ],
      [
        "Ġs",
        "ome"
      ],
      [
        "AR",
        "D"
      ],
      [
        "I",
        "f"
      ],
      [
        "Ġth",
        "ink"
      ],
      [
        "Ġthe",
        "se"
      ],
      [
        "A",
        "M"
      ],
      [
        "Ġm",
        "ine"
      ],
      [
        "in",
        "ce"
      ],
      [
        "Ġexit",
        "s"
      ],
      [
        "Ġf",
        "l"
      ],
      [
        "L",
        "O"
      ],
      [
        "n",
        "g"
      ],
      [
        "W",
        "ith"
      ],
      [
        "Ġf",
        "ri"
      ],
      [
        "ES",
        "S"
      ],
      [
        "o",
        "se"
      ],
      [
        "Ġa",
        "b"
      ],
      [
        "res",
        "s"
      ],
      [
        "Ġf",
        "ather"
      ],
      [
        "I",
        "n"
      ],
      [
        "a",
        "g"
      ],
      [
        "Ġg",
        "reat"
      ],
      [
        "C",
        "E"
      ],
      [
        "ent",
        "le"
      ],
      [
        "i",
        "us"
      ],
      [
        "e",
        "f"
      ],
      [
        "u",
        "st"
      ],
      [
        "or",
        "s"
      ],
      [
        "Ġt",
        "ime"
      ],
      [
        "w",
        "ay"
      ],
      [
        "Ġhe",
        "a"
      ],
      [
        "Ġ",
        "ro"
      ],
      [
        "Ġf",
        "o"
      ],
      [
        "o",
        "s"
      ],
      [
        "Ġt",
        "w"
      ],
      [
        "AN",
        "T"
      ],
      [
        "p",
        "t"
      ],
      [
        "Ġg",
        "ive"
      ],
      [
        "Ġc",
        "ha"
      ],
      [
        "Ġh",
        "ow"
      ],
      [
        "at",
        "ion"
      ],
      [
        "Ġd",
        "ay"
      ],
      [
        "ast",
        "er"
      ],
      [
        "A",
        "T"
      ],
      [
        "Ġt",
        "ake"
      ],
      [
        "re",
        "e"
      ],
      [
        "Ġmu",
        "ch"
      ],
      [
        "n",
        "ot"
      ],
      [
        "Ġm",
        "ost"
      ],
      [
        "Ġh",
        "o"
      ],
      [
        "I",
        "L"
      ],
      [
        "u",
        "ll"
      ],
      [
        "l",
        "i"
      ],
      [
        "Ġfri",
        "end"
      ],
      [
        "it",
        "e"
      ],
      [
        "ĠB",
        "ut"
      ],
      [
        "Ġne",
        "ver"
      ],
      [
        "Ġt",
        "ell"
      ],
      [
        "Ġw",
        "here"
      ],
      [
        "O",
        "f"
      ],
      [
        "Ġm",
        "ar"
      ],
      [
        "Ġd",
        "es"
      ],
      [
        "t",
        "he"
      ],
      [
        "ig",
        "n"
      ],
      [
        "Ġ",
        "Y"
      ],
      [
        "b",
        "er"
      ],
      [
        "Ġl",
        "ea"
      ],
      [
        "Ġg",
        "ra"
      ],
      [
        "Ġm",
        "en"
      ],
      [
        "R",
        "I"
      ],
      [
        "Ġ",
        "You"
      ],
      [
        "Ġhe",
        "ar"
      ],
      [
        "Ġbe",
        "t"
      ],
      [
        "Ġl",
        "ook"
      ],
      [
        "Ġar",
        "t"
      ],
      [
        "f",
        "ul"
      ],
      [
        "Ġbl",
        "ood"
      ],
      [
        "it",
        "her"
      ],
      [
        "Ġd",
        "oth"
      ],
      [
        "Ġli",
        "fe"
      ],
      [
        "m",
        "an"
      ],
      [
        "i",
        "an"
      ],
      [
        "S",
        "E"
      ],
      [
        "Ġo",
        "ther"
      ],
      [
        "B",
        "e"
      ],
      [
        "w",
        "ard"
      ],
      [
        "Ġw",
        "ord"
      ],
      [
        "W",
        "hich"
      ],
      [
        "m",
        "ent"
      ],
      [
        "i",
        "ous"
      ],
      [
        "en",
        "e"
      ],
      [
        "ou",
        "nt"
      ],
      [
        "Ġfa",
        "ir"
      ],
      [
        "ou",
        "l"
      ],
      [
        "Ġde",
        "ath"
      ],
      [
        "L",
        "A"
      ],
      [
        "Ġw",
        "r"
      ],
      [
        "d",
        "e"
      ],
      [
        "oo",
        "l"
      ],
      [
        "a",
        "se"
      ],
      [
        "c",
        "es"
      ],
      [
        "Ġg",
        "entle"
      ],
      [
        "er",
        "v"
      ],
      [
        "i",
        "gh"
      ],
      [
        "Ġ",
        "ri"
      ],
      [
        "Ġs",
        "on"
      ],
      [
        "I",
        "C"
      ],
      [
        "Ġp",
        "art"
      ],
      [
        "P",
        "H"
      ],
      [
        "U",
        "C"
      ],
      [
        "Ġt",
        "r"
      ],
      [
        "Th",
        "is"
      ],
      [
        "E",
        "T"
      ],
      [
        "Ġf",
        "ear"
      ],
      [
        "F",
        "F"
      ],
      [
        "S",
        "o"
      ],
      [
        "ar",
        "s"
      ],
      [
        "l",
        "es"
      ],
      [
        "W",
        "e"
      ],
      [
        "Ġs",
        "c"
      ],
      [
        "nd",
        "er"
      ],
      [
        "Ġo",
        "wn"
      ],
      [
        "it",
        "t"
      ],
      [
        "Ġp",
        "er"
      ],
      [
        "l",
        "and"
      ],
      [
        "Ġw",
        "h"
      ],
      [
        "Ġan",
        "y"
      ],
      [
        "Ġc",
        "l"
      ],
      [
        "Ġp",
        "le"
      ],
      [
        "Ġ",
        "ra"
      ],
      [
        "ĠL",
        "ord"
      ],
      [
        "e",
        "e"
      ],
      [
        "et",
        "h"
      ],
      [
        "Ġsw",
        "eet"
      ],
      [
        "S",
        "c"
      ],
      [
        "W",
        "ho"
      ],
      [
        "o",
        "ve"
      ],
      [
        "Ġhea",
        "ven"
      ],
      [
        "Ġc",
        "all"
      ],
      [
        "Ġa",
        "d"
      ],
      [
        "T",
        "is"
      ],
      [
        "Ġmad",
        "e"
      ],
      [
        "====",
        "=="
      ],
      [
        "row",
        "n"
      ],
      [
        "Ġey",
        "es"
      ],
      [
        "ĠI",
        "f"
      ],
      [
        "Ġtru",
        "e"
      ],
      [
        "i",
        "a"
      ],
      [
        "ll",
        "ow"
      ],
      [
        "Ġcom",
        "m"
      ],
      [
        "Ġn",
        "ight"
      ],
      [
        "p",
        "er"
      ],
      [
        "Sc",
        "ene"
      ],
      [
        "t",
        "ain"
      ],
      [
        "AN",
        "D"
      ],
      [
        "w",
        "e"
      ],
      [
        "Ġ",
        "very"
      ],
      [
        "W",
        "hen"
      ],
      [
        "ct",
        "ion"
      ],
      [
        "au",
        "gh"
      ],
      [
        "s",
        "s"
      ],
      [
        "u",
        "ke"
      ],
      [
        "======",
        "="
      ],
      [
        "a",
        "b"
      ],
      [
        "a",
        "c"
      ],
      [
        "Ġ",
        "ke"
      ],
      [
        "Ġha",
        "st"
      ],
      [
        "n",
        "ce"
      ],
      [
        "C",
        "A"
      ],
      [
        "H",
        "ow"
      ],
      [
        "Ġcan",
        "not"
      ],
      [
        "v",
        "ing"
      ],
      [
        "or",
        "row"
      ],
      [
        "Ġk",
        "ing"
      ],
      [
        "Ġa",
        "pp"
      ],
      [
        "om",
        "an"
      ],
      [
        "t",
        "is"
      ],
      [
        "U",
        "R"
      ],
      [
        "t",
        "y"
      ],
      [
        "Ġwor",
        "ld"
      ],
      [
        "Ġst",
        "r"
      ],
      [
        "o",
        "ck"
      ],
      [
        "Ġhon",
        "or"
      ],
      [
        "m",
        "e"
      ],
      [
        "Ġp",
        "re"
      ],
      [
        "a",
        "ble"
      ],
      [
        "is",
        "s"
      ],
      [
        "ĠP",
        "r"
      ],
      [
        "ĠG",
        "od"
      ],
      [
        "u",
        "d"
      ],
      [
        "Ġbe",
        "en"
      ],
      [
        "Ġbe",
        "g"
      ],
      [
        "Th",
        "ou"
      ],
      [
        "Ġpr",
        "ay"
      ],
      [
        "Ġa",
        "f"
      ],
      [
        "T",
        "I"
      ],
      [
        "Q",
        "U"
      ],
      [
        "ĠS",
        "ir"
      ],
      [
        "Ġw",
        "it"
      ],
      [
        "Ġd",
        "one"
      ],
      [
        "b",
        "e"
      ],
      [
        "Ġa",
        "way"
      ],
      [
        "Ġar",
        "m"
      ],
      [
        "A",
        "C"
      ],
      [
        "Ġd",
        "own"
      ],
      [
        "a",
        "ce"
      ],
      [
        "g",
        "er"
      ],
      [
        "Ġ",
        "im"
      ],
      [
        "Ġ",
        "ru"
      ],
      [
        "O",
        "r"
      ],
      [
        "Ġcom",
        "p"
      ],
      [
        "Ġw",
        "ay"
      ],
      [
        "IR",
        "ST"
      ],
      [
        "n",
        "e"
      ],
      [
        "if",
        "e"
      ],
      [
        "E",
        "M"
      ],
      [
        "Ġst",
        "and"
      ],
      [
        "f",
        "or"
      ],
      [
        "p",
        "s"
      ],
      [
        "Ġbr",
        "other"
      ],
      [
        "Ġtw",
        "o"
      ],
      [
        "Ġb",
        "re"
      ],
      [
        "c",
        "c"
      ],
      [
        "F",
        "IRST"
      ],
      [
        "Ġw",
        "ar"
      ],
      [
        "Ġl",
        "e"
      ],
      [
        "Ġn",
        "ame"
      ],
      [
        "EN",
        "T"
      ],
      [
        "l",
        "ess"
      ],
      [
        "I",
        "s"
      ],
      [
        "s",
        "w"
      ],
      [
        "he",
        "s"
      ],
      [
        "Ġn",
        "or"
      ],
      [
        "Ġhe",
        "ad"
      ],
      [
        "ĠW",
        "hy"
      ],
      [
        "ow",
        "er"
      ],
      [
        "on",
        "s"
      ],
      [
        "C",
        "ON"
      ],
      [
        "S",
        "he"
      ],
      [
        "Ġp",
        "res"
      ],
      [
        "k",
        "s"
      ],
      [
        "a",
        "w"
      ],
      [
        "Ġme",
        "an"
      ],
      [
        "ĠN",
        "o"
      ],
      [
        "ear",
        "s"
      ],
      [
        "Ġre",
        "m"
      ],
      [
        "OR",
        "D"
      ],
      [
        "Ġm",
        "ight"
      ],
      [
        "Ġo",
        "ld"
      ],
      [
        "Ġno",
        "ble"
      ],
      [
        "ir",
        "st"
      ],
      [
        "D",
        "U"
      ],
      [
        "The",
        "re"
      ],
      [
        "augh",
        "ter"
      ],
      [
        "Ġs",
        "l"
      ],
      [
        "Ġthou",
        "ght"
      ],
      [
        "Ġlea",
        "ve"
      ],
      [
        "Ġbe",
        "fore"
      ],
      [
        "as",
        "ide"
      ],
      [
        "W",
        "here"
      ],
      [
        "I",
        "t"
      ],
      [
        "E",
        "D"
      ],
      [
        "a",
        "ch"
      ],
      [
        "t",
        "end"
      ],
      [
        "Ġ",
        "V"
      ],
      [
        "c",
        "ome"
      ],
      [
        "b",
        "l"
      ],
      [
        "Ġ",
        "Ġ"
      ],
      [
        "Ġc",
        "our"
      ],
      [
        "ak",
        "es"
      ],
      [
        "W",
        "hy"
      ],
      [
        "Ġl",
        "ong"
      ],
      [
        "Ġha",
        "r"
      ],
      [
        "ĠM",
        "y"
      ],
      [
        "au",
        "se"
      ],
      [
[...]
